<pad>	0
<unk>	0
<s>	0
</s>	0
▁t	-0
▁a	-1
he	-2
in	-3
▁s	-4
▁the	-5
er	-6
▁w	-7
on	-8
re	-9
▁c	-10
▁b	-11
ed	-12
▁f	-13
en	-14
▁o	-15
▁p	-16
▁m	-17
▁h	-18
an	-19
at	-20
is	-21
or	-22
it	-23
ing	-24
es	-25
ar	-26
▁to	-27
▁in	-28
▁d	-29
▁an	-30
as	-31
al	-32
ou	-33
▁l	-34
▁of	-35
ic	-36
▁and	-37
il	-38
ro	-39
▁n	-40
▁th	-41
id	-42
▁g	-43
▁he	-44
▁re	-45
▁be	-46
ion	-47
ent	-48
le	-49
ay	-50
st	-51
ve	-52
▁e	-53
▁on	-54
om	-55
ut	-56
ot	-57
am	-58
ad	-59
ac	-60
ol	-61
▁for	-62
▁st	-63
▁u	-64
im	-65
el	-66
ter	-67
ir	-68
ur	-69
ig	-70
▁was	-71
ow	-72
ver	-73
et	-74
ly	-75
▁is	-76
▁wh	-77
▁it	-78
▁y	-79
▁at	-80
▁r	-81
▁j	-82
ith	-83
ec	-84
▁that	-85
▁with	-86
ill	-87
▁sa	-88
▁as	-89
▁al	-90
se	-91
ld	-92
▁his	-93
ri	-94
▁ch	-95
▁k	-96
ers	-97
ear	-98
▁ha	-99
ce	-100
▁said	-101
oun	-102
est	-103
ag	-104
her	-105
ation	-106
▁i	-107
and	-108
▁v	-109
ch	-110
rom	-111
ul	-112
un	-113
▁con	-114
igh	-115
ts	-116
ain	-117
ak	-118
▁sh	-119
us	-120
▁ne	-121
▁de	-122
pp	-123
▁by	-124
▁has	-125
th	-126
ore	-127
▁from	-128
▁her	-129
▁we	-130
▁le	-131
▁se	-132
our	-133
▁un	-134
▁have	-135
op	-136
▁af	-137
▁com	-138
os	-139
ted	-140
▁are	-141
▁she	-142
▁sp	-143
oo	-144
em	-145
▁but	-146
res	-147
▁su	-148
▁pro	-149
if	-150
ast	-151
end	-152
▁ac	-153
▁year	-154
ack	-155
▁not	-156
▁after	-157
all	-158
ould	-159
ra	-160
▁whe	-161
▁ex	-162
▁pl	-163
▁they	-164
▁who	-165
ight	-166
ust	-167
ess	-168
ate	-169
gh	-170
ice	-171
ard	-172
ere	-173
▁cl	-174
oc	-175
ab	-176
um	-177
▁had	-178
ity	-179
▁wor	-180
▁ab	-181
▁ar	-182
ist	-183
ive	-184
ie	-185
art	-186
qu	-187
▁were	-188
▁been	-189
red	-190
▁this	-191
▁will	-192
ound	-193
iv	-194
ies	-195
day	-196
▁off	-197
ome	-198
ort	-199
ud	-200
▁their	-201
ment	-202
ide	-203
▁man	-204
ost	-205
ant	-206
▁up	-207
▁ro	-208
▁out	-209
ap	-210
▁new	-211
ich	-212
▁ag	-213
out	-214
▁tr	-215
▁or	-216
ell	-217
der	-218
▁go	-219
▁ad	-220
ber	-221
▁sc	-222
ial	-223
▁tw	-224
▁us	-225
ren	-226
ge	-227
ays	-228
ia	-229
▁br	-230
ub	-231
one	-232
ans	-233
▁when	-234
▁pol	-235
▁rep	-236
ough	-237
ous	-238
▁one	-239
▁its	-240
ke	-241
ated	-242
old	-243
ct	-244
ong	-245
ine	-246
▁do	-247
au	-248
ff	-249
ict	-250
ail	-251
own	-252
▁im	-253
ther	-254
▁all	-255
▁en	-256
ime	-257
age	-258
▁pe	-259
▁which	-260
▁can	-261
ace	-262
▁int	-263
▁am	-264
ks	-265
▁mar	-266
▁me	-267
ord	-268
ry	-269
▁li	-270
ame	-271
▁bo	-272
▁over	-273
ue	-274
▁him	-275
ect	-276
▁inc	-277
hed	-278
▁more	-279
ake	-280
per	-281
ood	-282
so	-283
▁te	-284
ian	-285
▁cont	-286
▁you	-287
▁acc	-288
▁dis	-289
▁comp	-290
ond	-291
ure	-292
▁no	-293
ip	-294
▁so	-295
ary	-296
▁two	-297
▁about	-298
ally	-299
ident	-300
▁mon	-301
king	-302
ile	-303
▁also	-304
ree	-305
ions	-306
▁app	-307
ked	-308
▁gr	-309
ild	-310
▁res	-311
▁att	-312
av	-313
very	-314
▁bl	-315
▁mo	-316
pt	-317
ign	-318
▁fir	-319
ass	-320
▁per	-321
▁car	-322
▁would	-323
▁last	-324
ite	-325
▁peop	-326
ire	-327
▁cr	-328
▁than	-329
▁just	-330
▁police	-331
ence	-332
uc	-333
ind	-334
▁pr	-335
▁jo	-336
▁ev	-337
▁fe	-338
wn	-339
man	-340
▁people	-341
▁bec	-342
ish	-343
▁rec	-344
are	-345
▁into	-346
ress	-347
ft	-348
▁pre	-349
▁years	-350
▁play	-351
▁fl	-352
▁first	-353
▁qu	-354
mer	-355
▁co	-356
ens	-357
▁kn	-358
▁fr	-359
▁mr	-360
▁told	-361
ount	-362
ved	-363
▁there	-364
ors	-365
▁sec	-366
▁time	-367
▁ph	-368
▁could	-369
og	-370
land	-371
amp	-372
ick	-373
▁them	-374
ach	-375
▁part	-376
urn	-377
act	-378
▁other	-379
fore	-380
iss	-381
ath	-382
ug	-383
▁ser	-384
▁inter	-385
▁down	-386
ied	-387
▁my	-388
▁some	-389
nt	-390
ib	-391
▁dec	-392
other	-393
pl	-394
ade	-395
▁before	-396
ons	-397
ok	-398
▁back	-399
▁show	-400
▁now	-401
reat	-402
orn	-403
▁la	-404
ged	-405
ations	-406
▁again	-407
▁wee	-408
▁char	-409
ance	-410
ase	-411
▁fam	-412
▁des	-413
able	-414
ll	-415
▁if	-416
▁offic	-417
▁home	-418
▁says	-419
ys	-420
▁inv	-421
ife	-422
iz	-423
▁cent	-424
▁dr	-425
▁get	-426
ely	-427
ting	-428
ubl	-429
ool	-430
▁found	-431
▁being	-432
als	-433
ep	-434
▁min	-435
▁how	-436
▁child	-437
ose	-438
ater	-439
ily	-440
▁what	-441
uring	-442
▁world	-443
ont	-444
ause	-445
▁col	-446
▁say	-447
▁cour	-448
ang	-449
ious	-450
▁three	-451
▁under	-452
▁wom	-453
ates	-454
ving	-455
▁any	-456
▁pa	-457
▁par	-458
orm	-459
ents	-460
vers	-461
▁act	-462
ited	-463
▁call	-464
ings	-465
▁while	-466
▁comm	-467
ured	-468
▁bel	-469
ters	-470
ier	-471
▁may	-472
ical	-473
ook	-474
▁publ	-475
▁pres	-476
anc	-477
▁left	-478
▁count	-479
▁sur	-480
ince	-481
enc	-482
ition	-483
▁month	-484
▁did	-485
▁est	-486
▁hel	-487
illion	-488
up	-489
▁like	-490
ory	-491
▁yearold	-492
lud	-493
we	-494
▁repor	-495
ton	-496
nn	-497
▁add	-498
▁during	-499
▁rem	-500
ult	-501
▁ke	-502
▁ear	-503
▁against	-504
▁tak	-505
ph	-506
▁em	-507
oot	-508
oup	-509
od	-510
▁ind	-511
▁che	-512
vel	-513
▁sm	-514
▁sch	-515
▁because	-516
▁gu	-517
▁fin	-518
▁str	-519
▁bro	-520
▁work	-521
▁win	-522
▁cla	-523
▁star	-524
▁tri	-525
▁only	-526
▁where	-527
▁week	-528
▁includ	-529
▁made	-530
les	-531
▁cnn	-532
ne	-533
ather	-534
riend	-535
▁def	-536
▁bet	-537
te	-538
▁ins	-539
▁exp	-540
che	-541
ash	-542
low	-543
▁family	-544
▁pict	-545
way	-546
▁then	-547
ational	-548
ning	-549
▁imp	-550
ty	-551
▁day	-552
▁claim	-553
ix	-554
br	-555
son	-556
ating	-557
▁war	-558
▁court	-559
ull	-560
ger	-561
▁ass	-562
▁four	-563
▁thr	-564
▁most	-565
▁air	-566
▁lo	-567
atch	-568
▁team	-569
▁help	-570
▁eng	-571
ital	-572
▁ret	-573
▁our	-574
▁po	-575
▁vide	-576
oss	-577
▁med	-578
ink	-579
ues	-580
fer	-581
▁bar	-582
▁kill	-583
▁city	-584
ording	-585
▁ob	-586
▁since	-587
▁miss	-588
▁every	-589
ward	-590
ased	-591
▁million	-592
▁own	-593
▁see	-594
hing	-595
augh	-596
ities	-597
ember	-598
▁sy	-599
▁cap	-600
ise	-601
ouse	-602
▁according	-603
▁stud	-604
▁school	-605
▁lead	-606
ah	-607
▁mil	-608
▁through	-609
▁set	-610
▁right	-611
▁even	-612
▁make	-613
▁cons	-614
elf	-615
▁around	-616
▁op	-617
▁head	-618
▁children	-619
▁very	-620
▁bu	-621
▁video	-622
ared	-623
cc	-624
▁high	-625
used	-626
▁invest	-627
▁bot	-628
iel	-629
▁tra	-630
ale	-631
▁former	-632
hn	-633
ought	-634
▁second	-635
med	-636
▁attack	-637
▁brit	-638
▁fol	-639
ss	-640
▁well	-641
ned	-642
ful	-643
▁rel	-644
ason	-645
▁sun	-646
▁vict	-647
ble	-648
ames	-649
air	-650
▁face	-651
vern	-652
▁belie	-653
co	-654
tle	-655
▁law	-656
▁take	-657
▁reg	-658
ected	-659
▁follow	-660
▁long	-661
ster	-662
led	-663
eric	-664
ures	-665
oy	-666
▁way	-667
outh	-668
ished	-669
▁end	-670
▁z	-671
osp	-672
ced	-673
▁ter	-674
xt	-675
pped	-676
▁inf	-677
▁supp	-678
row	-679
ves	-680
▁death	-681
▁aut	-682
rop	-683
▁dri	-684
▁near	-685
ists	-686
▁plan	-687
▁dep	-688
iew	-689
▁friend	-690
▁govern	-691
▁loc	-692
▁life	-693
ven	-694
ction	-695
▁hand	-696
bs	-697
get	-698
▁official	-699
▁loo	-700
az	-701
ual	-702
▁know	-703
▁bre	-704
ered	-705
irl	-706
▁mu	-707
▁sign	-708
▁still	-709
ene	-710
▁united	-711
▁youn	-712
▁many	-713
▁president	-714
▁inj	-715
▁conf	-716
rest	-717
▁house	-718
imes	-719
▁sw	-720
▁need	-721
cer	-722
ement	-723
▁put	-724
▁good	-725
▁news	-726
aking	-727
▁should	-728
▁run	-729
▁happ	-730
▁investig	-731
ms	-732
ham	-733
▁five	-734
ives	-735
▁hosp	-736
▁pass	-737
ork	-738
int	-739
▁group	-740
▁post	-741
ised	-742
rib	-743
▁mother	-744
io	-745
▁cle	-746
alth	-747
▁leg	-748
ner	-749
rent	-750
▁nor	-751
gan	-752
▁another	-753
▁ap	-754
▁ed	-755
▁sl	-756
ave	-757
erson	-758
▁chr	-759
▁bus	-760
▁night	-761
uss	-762
▁foot	-763
▁open	-764
ying	-765
ral	-766
▁gl	-767
▁wal	-768
▁har	-769
▁government	-770
▁alle	-771
▁next	-772
urs	-773
▁phot	-774
gr	-775
▁going	-776
ween	-777
und	-778
▁those	-779
▁used	-780
▁girl	-781
▁between	-782
ague	-783
▁took	-784
ants	-785
ets	-786
hip	-787
its	-788
ling	-789
ours	-790
▁americ	-791
▁intern	-792
ady	-793
▁south	-794
ross	-795
ley	-796
tain	-797
ric	-798
▁fil	-799
ins	-800
▁young	-801
▁six	-802
▁arrest	-803
▁top	-804
▁sk	-805
▁ma	-806
▁hospital	-807
▁ann	-808
ury	-809
▁resp	-810
▁lond	-811
ines	-812
▁ban	-813
ular	-814
▁public	-815
▁sent	-816
ister	-817
▁pat	-818
ible	-819
▁ra	-820
▁sat	-821
ock	-822
▁real	-823
▁rele	-824
▁num	-825
▁mur	-826
▁days	-827
▁adm	-828
▁camp	-829
▁sex	-830
▁big	-831
▁bod	-832
▁vis	-833
▁state	-834
▁sus	-835
▁cur	-836
▁called	-837
▁hop	-838
▁ext	-839
nes	-840
▁including	-841
▁dif	-842
▁care	-843
▁ve	-844
▁men	-845
▁manag	-846
▁wed	-847
▁spe	-848
▁stat	-849
ange	-850
uary	-851
▁got	-852
ison	-853
▁league	-854
▁club	-855
▁pictured	-856
▁think	-857
▁later	-858
line	-859
▁inst	-860
▁country	-861
▁both	-862
ecut	-863
▁report	-864
▁reported	-865
▁london	-866
ains	-867
▁wr	-868
▁dont	-869
by	-870
▁ref	-871
▁red	-872
▁eu	-873
ages	-874
ten	-875
ivers	-876
▁ste	-877
uck	-878
▁such	-879
▁mid	-880
▁trans	-881
▁your	-882
ina	-883
iday	-884
▁far	-885
▁months	-886
▁ent	-887
hor	-888
▁cam	-889
▁want	-890
ics	-891
▁women	-892
▁return	-893
▁compan	-894
▁away	-895
▁health	-896
oney	-897
ision	-898
▁died	-899
▁exper	-900
▁taken	-901
▁cre	-902
roll	-903
▁these	-904
ights	-905
▁som	-906
ges	-907
▁find	-908
ness	-909
▁game	-910
▁hol	-911
▁seen	-912
▁ir	-913
▁det	-914
alf	-915
▁much	-916
▁sim	-917
gest	-918
▁woman	-919
▁added	-920
els	-921
▁el	-922
▁mem	-923
▁soc	-924
▁season	-925
▁mat	-926
▁lit	-927
▁spok	-928
ices	-929
▁ca	-930
▁dem	-931
▁prot	-932
ird	-933
▁serv	-934
▁champ	-935
olog	-936
▁gen	-937
▁beh	-938
hes	-939
▁tal	-940
▁author	-941
▁today	-942
▁doc	-943
▁cond	-944
▁ele	-945
▁come	-946
▁del	-947
▁susp	-948
▁never	-949
ived	-950
▁pay	-951
▁met	-952
side	-953
iam	-954
▁dav	-955
▁stre	-956
▁great	-957
▁hit	-958
▁went	-959
▁fac	-960
▁giv	-961
ments	-962
ute	-963
▁turn	-964
▁pri	-965
▁old	-966
▁john	-967
▁prev	-968
▁aust	-969
▁england	-970
ands	-971
▁place	-972
▁spec	-973
▁cost	-974
▁west	-975
▁case	-976
▁ce	-977
▁came	-978
ax	-979
bers	-980
ield	-981
▁rece	-982
▁test	-983
▁train	-984
self	-985
▁mark	-986
▁times	-987
▁north	-988
ined	-989
ired	-990
▁person	-991
▁colle	-992
ball	-993
▁sub	-994
▁contin	-995
ched	-996
▁sunday	-997
▁cup	-998
ually	-999
▁perf	-1000
▁published	-1001
▁rest	-1002
▁gre	-1003
eral	-1004
osed	-1005
▁sn	-1006
▁killed	-1007
▁side	-1008
▁dire	-1009
▁best	-1010
▁prov	-1011
▁prod	-1012
▁eff	-1013
▁uk	-1014
▁does	-1015
▁father	-1016
ative	-1017
▁coun	-1018
▁spokes	-1019
ever	-1020
▁cal	-1021
▁lar	-1022
▁upd	-1023
ened	-1024
▁jan	-1025
let	-1026
▁pop	-1027
▁fire	-1028
▁expl	-1029
▁appear	-1030
▁recent	-1031
ama	-1032
▁sever	-1033
▁shot	-1034
sh	-1035
▁national	-1036
▁use	-1037
▁suff	-1038
▁christ	-1039
▁unt	-1040
ient	-1041
▁body	-1042
▁record	-1043
ck	-1044
▁number	-1045
▁reve	-1046
▁hum	-1047
▁here	-1048
orts	-1049
▁av	-1050
▁victim	-1051
▁jud	-1052
vered	-1053
▁move	-1054
ried	-1055
▁stri	-1056
▁york	-1057
cl	-1058
ones	-1059
▁aff	-1060
chester	-1061
ency	-1062
▁dist	-1063
ov	-1064
▁vi	-1065
▁son	-1066
▁daugh	-1067
▁satur	-1068
▁same	-1069
▁iss	-1070
▁saturday	-1071
ower	-1072
▁boy	-1073
▁following	-1074
▁wife	-1075
▁too	-1076
▁alleged	-1077
▁having	-1078
▁es	-1079
▁ger	-1080
▁cor	-1081
▁let	-1082
▁incident	-1083
▁monday	-1084
ark	-1085
▁somet	-1086
ained	-1087
ility	-1088
▁rese	-1089
aff	-1090
port	-1091
na	-1092
▁until	-1093
▁austral	-1094
itted	-1095
▁hours	-1096
▁black	-1097
▁updated	-1098
▁however	-1099
▁won	-1100
ony	-1101
ik	-1102
▁saf	-1103
uct	-1104
uesday	-1105
▁tuesday	-1106
▁manchester	-1107
▁really	-1108
ued	-1109
▁look	-1110
▁british	-1111
▁di	-1112
▁allow	-1113
▁dead	-1114
▁money	-1115
ces	-1116
▁dog	-1117
▁appe	-1118
▁didnt	-1119
ided	-1120
▁international	-1121
▁mus	-1122
▁adv	-1123
▁univers	-1124
▁art	-1125
▁wednes	-1126
▁wednesday	-1127
ret	-1128
▁arrested	-1129
▁little	-1130
iting	-1131
▁start	-1132
▁water	-1133
amed	-1134
be	-1135
▁friday	-1136
iness	-1137
▁drug	-1138
▁officials	-1139
ific	-1140
view	-1141
inal	-1142
utes	-1143
▁stand	-1144
aw	-1145
▁keep	-1146
artment	-1147
▁without	-1148
▁asked	-1149
▁each	-1150
ending	-1151
▁fore	-1152
▁thought	-1153
ended	-1154
▁sit	-1155
▁den	-1156
▁david	-1157
▁oper	-1158
▁cele	-1159
ane	-1160
ety	-1161
▁lot	-1162
anted	-1163
▁resear	-1164
▁friends	-1165
aled	-1166
▁sal	-1167
▁camer	-1168
▁contro	-1169
▁current	-1170
▁direct	-1171
▁desc	-1172
▁celebr	-1173
▁murder	-1174
ker	-1175
▁prom	-1176
▁hot	-1177
▁ago	-1178
rents	-1179
▁pen	-1180
ester	-1181
▁differ	-1182
ief	-1183
▁white	-1184
▁sen	-1185
▁europ	-1186
ogra	-1187
ney	-1188
ering	-1189
ats	-1190
▁company	-1191
▁prof	-1192
▁local	-1193
▁given	-1194
▁saying	-1195
▁half	-1196
▁ge	-1197
▁support	-1198
▁ever	-1199
▁jun	-1200
▁desp	-1201
ew	-1202
▁authorities	-1203
▁weeks	-1204
ailed	-1205
▁poss	-1206
ored	-1207
▁sing	-1208
iving	-1209
lier	-1210
ps	-1211
▁university	-1212
ention	-1213
▁ju	-1214
▁cust	-1215
▁dev	-1216
▁milit	-1217
head	-1218
▁few	-1219
▁press	-1220
▁statement	-1221
▁along	-1222
ways	-1223
▁past	-1224
▁thurs	-1225
▁area	-1226
▁thursday	-1227
▁invol	-1228
▁proble	-1229
ism	-1230
ately	-1231
▁hes	-1232
▁ris	-1233
thing	-1234
▁super	-1235
▁bab	-1236
▁opp	-1237
ns	-1238
▁players	-1239
▁states	-1240
▁hard	-1241
▁order	-1242
▁bat	-1243
▁build	-1244
▁scroll	-1245
▁parents	-1246
▁commun	-1247
▁pos	-1248
▁deal	-1249
▁ang	-1250
▁prem	-1251
▁final	-1252
▁watch	-1253
▁claims	-1254
▁despite	-1255
▁fight	-1256
▁business	-1257
com	-1258
▁shows	-1259
▁coup	-1260
▁across	-1261
▁treat	-1262
▁event	-1263
▁taking	-1264
ready	-1265
aign	-1266
urity	-1267
▁released	-1268
▁already	-1269
▁campaign	-1270
▁daughter	-1271
▁park	-1272
▁using	-1273
▁pros	-1274
▁lost	-1275
▁mag	-1276
▁mod	-1277
▁earlier	-1278
▁feel	-1279
ds	-1280
▁crit	-1281
ects	-1282
▁gun	-1283
app	-1284
▁ms	-1285
ards	-1286
▁known	-1287
ified	-1288
▁football	-1289
▁staff	-1290
ially	-1291
▁mess	-1292
ank	-1293
▁viol	-1294
▁mot	-1295
▁prison	-1296
str	-1297
velop	-1298
▁officers	-1299
▁spokesman	-1300
▁champions	-1301
▁able	-1302
▁dam	-1303
▁maj	-1304
▁quest	-1305
▁office	-1306
▁conv	-1307
▁match	-1308
▁early	-1309
▁couple	-1310
▁sum	-1311
▁third	-1312
▁security	-1313
▁russ	-1314
▁working	-1315
▁grand	-1316
ott	-1317
▁rob	-1318
▁ham	-1319
▁several	-1320
aster	-1321
▁food	-1322
▁behind	-1323
pr	-1324
▁hus	-1325
▁clear	-1326
ob	-1327
ized	-1328
ior	-1329
ience	-1330
▁started	-1331
eng	-1332
ium	-1333
con	-1334
▁goal	-1335
ump	-1336
▁europe	-1337
ror	-1338
me	-1339
▁announ	-1340
▁outside	-1341
▁describ	-1342
▁love	-1343
▁design	-1344
▁lik	-1345
▁minutes	-1346
▁inform	-1347
▁develop	-1348
▁bur	-1349
▁lab	-1350
▁free	-1351
iously	-1352
▁something	-1353
book	-1354
▁tell	-1355
aring	-1356
▁land	-1357
ploy	-1358
▁january	-1359
▁form	-1360
▁american	-1361
▁road	-1362
atic	-1363
▁full	-1364
▁sold	-1365
ann	-1366
gy	-1367
▁saw	-1368
▁laun	-1369
ection	-1370
▁tot	-1371
▁service	-1372
stem	-1373
▁squ	-1374
▁party	-1375
▁hom	-1376
▁less	-1377
ances	-1378
▁seven	-1379
▁give	-1380
▁ple	-1381
▁sug	-1382
▁mail	-1383
cess	-1384
▁bra	-1385
▁concer	-1386
cher	-1387
▁arri	-1388
▁heard	-1389
▁believe	-1390
▁val	-1391
▁making	-1392
▁doct	-1393
▁view	-1394
▁disc	-1395
▁least	-1396
▁charged	-1397
▁front	-1398
▁members	-1399
▁fur	-1400
▁media	-1401
▁hold	-1402
▁mom	-1403
idence	-1404
▁small	-1405
▁gra	-1406
▁whether	-1407
▁manager	-1408
▁tre	-1409
▁anim	-1410
band	-1411
▁games	-1412
ael	-1413
▁wanted	-1414
go	-1415
▁ill	-1416
▁requ	-1417
▁system	-1418
▁among	-1419
▁fall	-1420
▁hist	-1421
pool	-1422
▁polit	-1423
ape	-1424
▁cut	-1425
wards	-1426
ford	-1427
▁march	-1428
ians	-1429
pping	-1430
▁fact	-1431
▁incre	-1432
▁emer	-1433
▁meet	-1434
itter	-1435
▁net	-1436
lex	-1437
▁succ	-1438
▁mc	-1439
▁claimed	-1440
▁secret	-1441
▁bir	-1442
▁mad	-1443
▁eight	-1444
▁arm	-1445
▁major	-1446
▁morn	-1447
▁disco	-1448
▁looking	-1449
▁investigation	-1450
▁cer	-1451
▁thats	-1452
to	-1453
▁short	-1454
▁hope	-1455
▁rul	-1456
▁feat	-1457
akes	-1458
▁wear	-1459
▁become	-1460
▁fans	-1461
▁step	-1462
aily	-1463
▁ball	-1464
▁beat	-1465
▁held	-1466
▁live	-1467
▁read	-1468
▁obama	-1469
▁due	-1470
▁always	-1471
ession	-1472
▁accused	-1473
▁mich	-1474
ising	-1475
▁tour	-1476
▁liver	-1477
▁room	-1478
▁minister	-1479
▁daily	-1480
ides	-1481
▁german	-1482
▁revealed	-1483
ee	-1484
▁judge	-1485
▁threat	-1486
rown	-1487
▁morning	-1488
▁bill	-1489
bc	-1490
ugg	-1491
▁facebook	-1492
▁shoot	-1493
▁wa	-1494
ming	-1495
▁tax	-1496
▁charges	-1497
▁chief	-1498
▁ey	-1499
▁once	-1500
ai	-1501
▁pain	-1502
▁county	-1503
▁december	-1504
▁proper	-1505
▁main	-1506
▁himself	-1507
cept	-1508
aged	-1509
▁close	-1510
▁ident	-1511
▁better	-1512
▁compl	-1513
ries	-1514
▁tar	-1515
▁fell	-1516
▁trying	-1517
▁social	-1518
▁must	-1519
ution	-1520
ove	-1521
▁alm	-1522
▁tec	-1523
▁power	-1524
▁success	-1525
▁department	-1526
oke	-1527
ators	-1528
▁heart	-1529
▁visit	-1530
▁different	-1531
▁fed	-1532
ract	-1533
▁prosecut	-1534
ike	-1535
▁dou	-1536
▁stop	-1537
aced	-1538
▁mrs	-1539
▁pal	-1540
ody	-1541
year	-1542
▁sear	-1543
▁ten	-1544
▁street	-1545
▁sept	-1546
▁attem	-1547
▁others	-1548
fic	-1549
▁why	-1550
▁deb	-1551
▁organ	-1552
▁photogra	-1553
ril	-1554
▁spot	-1555
▁stay	-1556
raw	-1557
▁van	-1558
▁online	-1559
▁lat	-1560
▁occ	-1561
▁pot	-1562
bed	-1563
ints	-1564
▁decision	-1565
▁nat	-1566
▁seem	-1567
ches	-1568
gram	-1569
▁host	-1570
▁compet	-1571
▁medical	-1572
▁class	-1573
ressed	-1574
▁husband	-1575
▁played	-1576
▁lu	-1577
▁ground	-1578
mber	-1579
iver	-1580
▁break	-1581
sea	-1582
▁geor	-1583
ases	-1584
less	-1585
▁name	-1586
▁fer	-1587
ject	-1588
▁consid	-1589
uction	-1590
▁liverpool	-1591
▁though	-1592
ey	-1593
▁tit	-1594
▁special	-1595
▁age	-1596
▁expected	-1597
▁town	-1598
▁program	-1599
friend	-1600
ille	-1601
▁wind	-1602
rew	-1603
▁ber	-1604
▁nove	-1605
▁premier	-1606
▁september	-1607
ator	-1608
▁arg	-1609
▁inside	-1610
▁jack	-1611
▁roy	-1612
▁pm	-1613
▁job	-1614
▁oct	-1615
▁don	-1616
▁phone	-1617
▁june	-1618
▁afric	-1619
▁military	-1620
ler	-1621
sen	-1622
cent	-1623
▁human	-1624
▁level	-1625
▁april	-1626
▁november	-1627
ona	-1628
▁site	-1629
▁aug	-1630
▁webs	-1631
yp	-1632
rid	-1633
▁ant	-1634
▁brother	-1635
▁player	-1636
ize	-1637
▁mean	-1638
▁centre	-1639
ration	-1640
▁comes	-1641
gin	-1642
▁vir	-1643
▁getting	-1644
▁yet	-1645
▁officer	-1646
▁kid	-1647
▁wat	-1648
▁er	-1649
▁fig	-1650
▁port	-1651
▁chel	-1652
▁film	-1653
▁information	-1654
▁mass	-1655
uel	-1656
▁received	-1657
▁hor	-1658
▁almost	-1659
▁sol	-1660
▁things	-1661
▁change	-1662
▁custom	-1663
▁produc	-1664
▁list	-1665
▁point	-1666
▁reports	-1667
▁training	-1668
▁coll	-1669
de	-1670
▁fel	-1671
▁suggest	-1672
▁william	-1673
▁fun	-1674
▁enough	-1675
▁ahead	-1676
ighb	-1677
▁baby	-1678
▁confir	-1679
rote	-1680
▁neighb	-1681
ober	-1682
▁lif	-1683
▁spent	-1684
▁vot	-1685
▁playing	-1686
que	-1687
room	-1688
▁appro	-1689
▁october	-1690
bo	-1691
gress	-1692
ences	-1693
▁james	-1694
▁august	-1695
icle	-1696
▁ital	-1697
▁michael	-1698
▁teen	-1699
▁tried	-1700
▁rom	-1701
▁import	-1702
▁bad	-1703
hern	-1704
▁wrote	-1705
ald	-1706
▁toget	-1707
▁together	-1708
▁jour	-1709
den	-1710
▁priv	-1711
▁counc	-1712
▁interest	-1713
▁line	-1714
▁ur	-1715
▁hu	-1716
▁mor	-1717
▁scene	-1718
▁admitted	-1719
ops	-1720
▁tv	-1721
▁vill	-1722
ana	-1723
▁twitter	-1724
▁mart	-1725
▁leave	-1726
▁insp	-1727
▁capt	-1728
ically	-1729
▁strong	-1730
▁further	-1731
▁los	-1732
▁travel	-1733
▁control	-1734
▁began	-1735
▁famil	-1736
uty	-1737
▁sam	-1738
▁techn	-1739
▁might	-1740
▁assa	-1741
▁rich	-1742
▁chall	-1743
reed	-1744
▁execut	-1745
▁cant	-1746
ias	-1747
▁repl	-1748
itness	-1749
▁july	-1750
▁rad	-1751
term	-1752
ech	-1753
aper	-1754
▁led	-1755
▁girls	-1756
ients	-1757
▁believed	-1758
use	-1759
▁fund	-1760
▁gave	-1761
mas	-1762
acy	-1763
▁happened	-1764
▁san	-1765
▁east	-1766
▁store	-1767
▁cancer	-1768
▁interview	-1769
ails	-1770
▁likely	-1771
▁allegedly	-1772
▁website	-1773
▁director	-1774
▁dro	-1775
▁paul	-1776
▁nearly	-1777
iforn	-1778
▁grow	-1779
▁flight	-1780
istan	-1781
field	-1782
▁bed	-1783
▁californ	-1784
▁fut	-1785
urch	-1786
▁students	-1787
▁veh	-1788
▁study	-1789
▁action	-1790
▁ben	-1791
▁round	-1792
▁became	-1793
▁hig	-1794
ender	-1795
▁pull	-1796
▁yester	-1797
▁partic	-1798
▁guil	-1799
uted	-1800
▁late	-1801
▁island	-1802
▁victims	-1803
▁yesterday	-1804
▁light	-1805
ners	-1806
ption	-1807
▁trial	-1808
▁aw	-1809
icted	-1810
aught	-1811
▁mal	-1812
▁rac	-1813
▁living	-1814
anger	-1815
▁doing	-1816
cel	-1817
▁equ	-1818
ached	-1819
▁blood	-1820
mp	-1821
▁mill	-1822
▁lives	-1823
▁summer	-1824
oring	-1825
▁done	-1826
▁sto	-1827
▁target	-1828
▁council	-1829
ars	-1830
▁boo	-1831
▁research	-1832
xic	-1833
▁hun	-1834
▁employ	-1835
▁forward	-1836
▁described	-1837
uit	-1838
▁lin	-1839
bruary	-1840
▁que	-1841
ology	-1842
ense	-1843
yle	-1844
▁series	-1845
▁february	-1846
▁fa	-1847
▁econ	-1848
▁currently	-1849
par	-1850
oon	-1851
▁fren	-1852
▁accident	-1853
▁leav	-1854
▁ide	-1855
acher	-1856
▁comple	-1857
▁econom	-1858
▁popular	-1859
▁comment	-1860
▁appeared	-1861
▁present	-1862
▁relations	-1863
▁forced	-1864
▁reco	-1865
▁posted	-1866
oci	-1867
itions	-1868
▁gold	-1869
▁conn	-1870
dle	-1871
ults	-1872
▁tro	-1873
▁arsen	-1874
ilar	-1875
aps	-1876
here	-1877
▁bal	-1878
▁boss	-1879
▁resident	-1880
▁miles	-1881
▁birth	-1882
▁rights	-1883
▁associ	-1884
▁future	-1885
ission	-1886
▁picture	-1887
lo	-1888
▁tele	-1889
ination	-1890
▁guilty	-1891
ening	-1892
▁safety	-1893
▁tom	-1894
▁try	-1895
▁terror	-1896
▁dom	-1897
▁bring	-1898
ring	-1899
▁pet	-1900
▁legal	-1901
▁involved	-1902
▁ran	-1903
▁suffered	-1904
▁pun	-1905
▁cat	-1906
▁nine	-1907
▁pair	-1908
▁cross	-1909
▁elect	-1910
▁bor	-1911
▁angel	-1912
▁low	-1913
▁mer	-1914
▁sho	-1915
uries	-1916
▁injury	-1917
▁search	-1918
▁alth	-1919
▁risk	-1920
ably	-1921
▁important	-1922
▁within	-1923
iding	-1924
▁commit	-1925
▁board	-1926
▁polic	-1927
bert	-1928
▁orig	-1929
▁sil	-1930
▁sell	-1931
▁plans	-1932
▁resc	-1933
▁turned	-1934
▁question	-1935
nal	-1936
omb	-1937
▁chelsea	-1938
▁california	-1939
▁tou	-1940
▁jer	-1941
sel	-1942
▁qual	-1943
▁although	-1944
hen	-1945
▁evidence	-1946
▁fem	-1947
▁phil	-1948
itive	-1949
aded	-1950
▁treatment	-1951
▁q	-1952
▁french	-1953
ots	-1954
▁pi	-1955
▁challen	-1956
▁student	-1957
▁bas	-1958
ida	-1959
erv	-1960
lish	-1961
att	-1962
▁caused	-1963
ective	-1964
▁attorn	-1965
▁coming	-1966
▁bit	-1967
▁lou	-1968
▁soon	-1969
▁surv	-1970
▁quick	-1971
▁community	-1972
▁box	-1973
▁story	-1974
▁christmas	-1975
▁ive	-1976
▁flor	-1977
▁latest	-1978
▁activ	-1979
▁often	-1980
pted	-1981
▁showed	-1982
▁x	-1983
ding	-1984
using	-1985
▁ver	-1986
▁strugg	-1987
▁center	-1988
▁history	-1989
off	-1990
verage	-1991
▁lim	-1992
▁card	-1993
▁announced	-1994
cast	-1995
▁leader	-1996
▁possible	-1997
▁fat	-1998
ensive	-1999
▁someone	-2000
▁washing	-2001
hel	-2002
▁tem	-2003
▁thing	-2004
▁doesnt	-2005
uce	-2006
▁cann	-2007
ural	-2008
▁crim	-2009
▁wood	-2010
▁named	-2011
▁missing	-2012
ream	-2013
▁syri	-2014
▁alex	-2015
▁sexual	-2016
▁billion	-2017
▁underst	-2018
▁fly	-2019
▁force	-2020
▁happy	-2021
▁driver	-2022
ging	-2023
▁esc	-2024
▁sour	-2025
▁sure	-2026
ival	-2027
▁sports	-2028
▁crime	-2029
▁thous	-2030
▁career	-2031
▁station	-2032
zil	-2033
itch	-2034
▁contrib	-2035
ead	-2036
irc	-2037
▁building	-2038
▁discovered	-2039
▁book	-2040
▁theres	-2041
▁carry	-2042
▁australia	-2043
ocked	-2044
▁hotel	-2045
▁exc	-2046
▁points	-2047
▁worked	-2048
▁dan	-2049
enced	-2050
▁large	-2051
▁lear	-2052
▁disapp	-2053
ston	-2054
▁enj	-2055
ca	-2056
▁general	-2057
rie	-2058
▁fav	-2059
▁clin	-2060
▁recently	-2061
▁victory	-2062
▁injured	-2063
wood	-2064
▁bbc	-2065
ortun	-2066
▁role	-2067
▁coach	-2068
▁crash	-2069
ories	-2070
ounds	-2071
▁paid	-2072
▁injuries	-2073
▁king	-2074
▁moment	-2075
▁china	-2076
▁similar	-2077
▁trad	-2078
▁track	-2079
ij	-2080
ino	-2081
▁caught	-2082
▁bank	-2083
▁lawy	-2084
▁brown	-2085
▁coast	-2086
▁diffic	-2087
▁difficult	-2088
▁civ	-2089
isted	-2090
▁fear	-2091
▁space	-2092
▁nothing	-2093
▁nort	-2094
▁rock	-2095
▁scient	-2096
▁airport	-2097
idge	-2098
▁prop	-2099
▁royal	-2100
▁market	-2101
▁looked	-2102
▁je	-2103
▁anything	-2104
▁scored	-2105
ests	-2106
ray	-2107
▁respons	-2108
raft	-2109
▁tex	-2110
▁european	-2111
rict	-2112
▁workers	-2113
▁hon	-2114
▁above	-2115
▁decided	-2116
▁weekend	-2117
▁tur	-2118
▁doctors	-2119
▁arsenal	-2120
▁repres	-2121
▁wrong	-2122
▁traff	-2123
▁wil	-2124
▁page	-2125
ashed	-2126
▁prime	-2127
ny	-2128
back	-2129
▁imm	-2130
▁instead	-2131
▁heav	-2132
▁gar	-2133
▁bene	-2134
▁wasnt	-2135
▁green	-2136
ma	-2137
medi	-2138
▁goals	-2139
▁circ	-2140
▁snow	-2141
▁driving	-2142
▁enc	-2143
▁init	-2144
▁potent	-2145
▁bea	-2146
ze	-2147
▁bag	-2148
▁impro	-2149
▁result	-2150
▁washington	-2151
▁eas	-2152
▁burn	-2153
▁include	-2154
▁jail	-2155
▁relationship	-2156
▁charge	-2157
▁process	-2158
▁trip	-2159
▁serious	-2160
▁captain	-2161
▁moved	-2162
ese	-2163
▁problems	-2164
engers	-2165
▁images	-2166
▁civil	-2167
▁writ	-2168
▁looks	-2169
▁plane	-2170
▁agency	-2171
▁chance	-2172
▁leaders	-2173
ush	-2174
▁hur	-2175
▁music	-2176
▁anyone	-2177
▁federal	-2178
lin	-2179
▁title	-2180
▁remains	-2181
▁enjoy	-2182
ocr	-2183
▁ira	-2184
▁thousands	-2185
work	-2186
▁huge	-2187
▁failed	-2188
▁comments	-2189
▁property	-2190
▁dest	-2191
▁thom	-2192
▁hands	-2193
ram	-2194
▁flo	-2195
▁political	-2196
af	-2197
▁wall	-2198
▁brazil	-2199
▁critic	-2200
▁problem	-2201
▁course	-2202
▁remain	-2203
▁running	-2204
▁immedi	-2205
▁mel	-2206
▁docum	-2207
▁whose	-2208
▁kind	-2209
iers	-2210
ows	-2211
▁cause	-2212
▁married	-2213
▁personal	-2214
ips	-2215
▁boys	-2216
▁surger	-2217
▁sle	-2218
▁vol	-2219
▁simp	-2220
▁journal	-2221
▁wants	-2222
por	-2223
▁mic	-2224
▁race	-2225
▁britain	-2226
hol	-2227
▁florida	-2228
▁continue	-2229
▁kore	-2230
▁extre	-2231
▁middle	-2232
▁mcc	-2233
▁amb	-2234
▁account	-2235
▁fail	-2236
uation	-2237
▁danger	-2238
inking	-2239
▁photos	-2240
▁returned	-2241
▁prin	-2242
▁prob	-2243
▁twe	-2244
orman	-2245
▁div	-2246
chers	-2247
▁madrid	-2248
▁pictures	-2249
▁secretary	-2250
aker	-2251
▁patients	-2252
sey	-2253
▁cho	-2254
▁france	-2255
▁dise	-2256
▁member	-2257
han	-2258
▁clos	-2259
▁emb	-2260
selves	-2261
ett	-2262
ublic	-2263
ken	-2264
▁witness	-2265
ades	-2266
vent	-2267
ka	-2268
▁condition	-2269
ither	-2270
▁makes	-2271
▁killing	-2272
▁key	-2273
▁pil	-2274
ata	-2275
bur	-2276
▁buy	-2277
▁leaving	-2278
▁perform	-2279
ional	-2280
▁admin	-2281
▁avail	-2282
▁hill	-2283
▁republic	-2284
▁model	-2285
mar	-2286
▁hair	-2287
▁mexic	-2288
▁penal	-2289
▁born	-2290
▁die	-2291
▁confirmed	-2292
▁defe	-2293
▁gener	-2294
yl	-2295
▁bid	-2296
▁decl	-2297
▁photo	-2298
▁draw	-2299
▁iraq	-2300
▁laws	-2301
▁prep	-2302
▁capital	-2303
▁striker	-2304
▁self	-2305
oud	-2306
▁assist	-2307
▁worth	-2308
▁bul	-2309
▁oly	-2310
▁brought	-2311
lam	-2312
icked	-2313
▁olymp	-2314
▁foreign	-2315
▁mis	-2316
▁services	-2317
▁abs	-2318
▁price	-2319
▁countries	-2320
▁isra	-2321
▁creat	-2322
▁shooting	-2323
▁passengers	-2324
▁broad	-2325
▁helped	-2326
uff	-2327
ises	-2328
▁educ	-2329
▁sand	-2330
▁smith	-2331
▁arrived	-2332
▁fif	-2333
▁allowed	-2334
▁gone	-2335
▁cnns	-2336
▁owner	-2337
▁jap	-2338
▁hearing	-2339
▁os	-2340
read	-2341
▁wearing	-2342
▁everyone	-2343
hire	-2344
▁neg	-2345
▁users	-2346
body	-2347
▁attorney	-2348
iff	-2349
fully	-2350
▁drugs	-2351
▁chris	-2352
▁complain	-2353
▁surpr	-2354
▁stra	-2355
▁release	-2356
▁australian	-2357
▁private	-2358
▁families	-2359
▁cop	-2360
▁based	-2361
▁teacher	-2362
▁bay	-2363
ox	-2364
cle	-2365
ushed	-2366
▁crow	-2367
▁justice	-2368
▁indust	-2369
ris	-2370
anged	-2371
ky	-2372
ara	-2373
iant	-2374
▁ken	-2375
oll	-2376
▁certain	-2377
▁everything	-2378
▁issue	-2379
gency	-2380
phone	-2381
▁field	-2382
▁means	-2383
▁surve	-2384
▁knew	-2385
▁surgery	-2386
▁available	-2387
▁reporter	-2388
▁brand	-2389
ole	-2390
of	-2391
stit	-2392
▁disp	-2393
▁george	-2394
eth	-2395
▁assault	-2396
▁central	-2397
▁nec	-2398
▁violence	-2399
cted	-2400
oid	-2401
▁needed	-2402
▁represent	-2403
▁chang	-2404
ece	-2405
▁cy	-2406
▁foc	-2407
▁mob	-2408
acted	-2409
▁performan	-2410
▁felt	-2411
▁sport	-2412
▁clim	-2413
▁calls	-2414
▁respond	-2415
ulation	-2416
iety	-2417
▁mov	-2418
▁rod	-2419
▁typ	-2420
▁loss	-2421
▁brain	-2422
▁camera	-2423
▁vehicle	-2424
▁chair	-2425
▁animal	-2426
ghan	-2427
▁access	-2428
▁female	-2429
▁var	-2430
▁rather	-2431
ipp	-2432
ference	-2433
▁aud	-2434
▁tim	-2435
asing	-2436
▁cra	-2437
▁fair	-2438
▁hour	-2439
▁takes	-2440
ery	-2441
ola	-2442
▁rap	-2443
▁percent	-2444
ru	-2445
▁democr	-2446
▁leading	-2447
sw	-2448
umb	-2449
▁martin	-2450
hs	-2451
▁unf	-2452
▁cand	-2453
▁america	-2454
▁customers	-2455
▁cast	-2456
▁israel	-2457
▁couldnt	-2458
▁launched	-2459
▁crew	-2460
▁average	-2461
▁meas	-2462
▁previously	-2463
▁image	-2464
aur	-2465
▁cases	-2466
▁expect	-2467
▁previous	-2468
▁alleg	-2469
yearold	-2470
▁forces	-2471
▁quar	-2472
▁wild	-2473
▁reach	-2474
▁experts	-2475
▁themselves	-2476
▁crown	-2477
▁common	-2478
ify	-2479
gn	-2480
riage	-2481
▁contract	-2482
▁criminal	-2483
undred	-2484
▁works	-2485
▁id	-2486
time	-2487
▁benef	-2488
▁beach	-2489
▁pan	-2490
▁wel	-2491
▁experience	-2492
▁pack	-2493
▁hundred	-2494
▁charac	-2495
▁reb	-2496
▁idea	-2497
▁shar	-2498
enger	-2499
▁believes	-2500
ament	-2501
▁holiday	-2502
▁join	-2503
ung	-2504
ilt	-2505
▁cell	-2506
▁administ	-2507
▁abuse	-2508
▁displ	-2509
▁amaz	-2510
ees	-2511
▁esp	-2512
▁trust	-2513
ica	-2514
▁term	-2515
▁scott	-2516
▁hall	-2517
▁disease	-2518
aces	-2519
▁afghan	-2520
▁enter	-2521
▁refused	-2522
phy	-2523
▁speed	-2524
▁convicted	-2525
itional	-2526
▁attempt	-2527
▁rev	-2528
▁infl	-2529
▁attacks	-2530
▁residents	-2531
▁areas	-2532
▁famous	-2533
▁english	-2534
▁pred	-2535
▁cou	-2536
▁mount	-2537
▁sister	-2538
▁labour	-2539
iled	-2540
▁firm	-2541
▁created	-2542
▁barcel	-2543
wh	-2544
▁squad	-2545
▁longer	-2546
▁deep	-2547
▁emergency	-2548
▁meeting	-2549
▁sir	-2550
▁extra	-2551
▁church	-2552
▁faces	-2553
▁winning	-2554
▁norm	-2555
▁japan	-2556
▁determ	-2557
▁feet	-2558
▁prince	-2559
▁biggest	-2560
▁nations	-2561
wor	-2562
▁ry	-2563
▁kept	-2564
▁stad	-2565
▁discuss	-2566
rod	-2567
▁mans	-2568
▁pract	-2569
▁damage	-2570
unt	-2571
▁dress	-2572
▁college	-2573
▁pressure	-2574
▁scot	-2575
▁position	-2576
inese	-2577
▁sout	-2578
▁range	-2579
▁phys	-2580
▁fit	-2581
▁senior	-2582
pher	-2583
icide	-2584
ularly	-2585
▁cover	-2586
▁guard	-2587
▁groups	-2588
▁mult	-2589
▁texas	-2590
▁single	-2591
▁championship	-2592
▁roll	-2593
▁walk	-2594
▁contributed	-2595
▁matt	-2596
iod	-2597
▁sea	-2598
▁span	-2599
▁weap	-2600
▁carried	-2601
▁pers	-2602
▁footage	-2603
▁district	-2604
▁speaking	-2605
▁total	-2606
▁storm	-2607
▁stadium	-2608
oph	-2609
▁minute	-2610
▁franc	-2611
▁message	-2612
▁executive	-2613
ishing	-2614
▁scientists	-2615
▁suppor	-2616
▁actually	-2617
▁included	-2618
▁controvers	-2619
▁tweet	-2620
vell	-2621
▁williams	-2622
sp	-2623
▁du	-2624
▁bud	-2625
▁review	-2626
▁warned	-2627
▁commission	-2628
▁hear	-2629
▁joined	-2630
▁internet	-2631
ini	-2632
ron	-2633
▁champion	-2634
▁sentence	-2635
yn	-2636
▁battle	-2637
lim	-2638
▁stage	-2639
▁northern	-2640
▁ps	-2641
▁door	-2642
▁richard	-2643
▁operation	-2644
▁islam	-2645
▁eye	-2646
▁signed	-2647
arent	-2648
▁theyre	-2649
oved	-2650
riff	-2651
▁safe	-2652
▁africa	-2653
ently	-2654
shire	-2655
▁else	-2656
for	-2657
▁figures	-2658
▁share	-2659
▁blue	-2660
▁policy	-2661
gg	-2662
▁ens	-2663
▁army	-2664
▁shes	-2665
▁indep	-2666
▁weight	-2667
itor	-2668
▁hero	-2669
▁denied	-2670
▁situation	-2671
▁pak	-2672
▁base	-2673
▁jump	-2674
▁project	-2675
ager	-2676
▁table	-2677
▁row	-2678
▁behav	-2679
▁period	-2680
▁worlds	-2681
▁mas	-2682
▁motor	-2683
▁drive	-2684
▁offer	-2685
▁cannot	-2686
▁chinese	-2687
fl	-2688
irt	-2689
ibility	-2690
▁financ	-2691
▁appl	-2692
▁russian	-2693
vision	-2694
▁gard	-2695
▁shop	-2696
▁clot	-2697
▁reason	-2698
▁schools	-2699
▁swe	-2700
▁dogs	-2701
▁opening	-2702
▁ic	-2703
▁newsp	-2704
▁kit	-2705
▁cameron	-2706
rain	-2707
▁ron	-2708
alled	-2709
▁independ	-2710
▁hen	-2711
inted	-2712
▁comb	-2713
▁scre	-2714
▁aged	-2715
▁teams	-2716
▁matter	-2717
ho	-2718
▁pret	-2719
▁stab	-2720
anding	-2721
▁separ	-2722
▁launch	-2723
▁ordered	-2724
roy	-2725
▁fast	-2726
▁ep	-2727
born	-2728
▁needs	-2729
ider	-2730
▁penalty	-2731
▁immediately	-2732
inated	-2733
▁challenge	-2734
▁der	-2735
▁data	-2736
▁researchers	-2737
inger	-2738
▁bomb	-2739
▁cult	-2740
▁angeles	-2741
gers	-2742
▁fal	-2743
ashion	-2744
ipped	-2745
▁earth	-2746
▁bott	-2747
▁begin	-2748
ex	-2749
lands	-2750
▁doub	-2751
▁speak	-2752
▁youre	-2753
▁germany	-2754
kn	-2755
tt	-2756
▁barcelona	-2757
uses	-2758
astic	-2759
ounded	-2760
▁estim	-2761
▁investigators	-2762
▁nation	-2763
ension	-2764
▁restaur	-2765
ental	-2766
▁score	-2767
hest	-2768
asons	-2769
▁award	-2770
▁potential	-2771
olf	-2772
ergy	-2773
▁provide	-2774
hood	-2775
▁anal	-2776
▁trib	-2777
▁quite	-2778
▁attention	-2779
atives	-2780
▁issues	-2781
▁iran	-2782
▁johnson	-2783
▁cars	-2784
▁whole	-2785
▁fourth	-2786
▁sad	-2787
▁accept	-2788
▁ash	-2789
▁corn	-2790
▁stars	-2791
▁twice	-2792
▁stopped	-2793
▁cit	-2794
▁river	-2795
▁letter	-2796
▁opportun	-2797
berg	-2798
▁fle	-2799
▁details	-2800
▁quickly	-2801
ique	-2802
icking	-2803
▁prevent	-2804
ivid	-2805
▁reportedly	-2806
▁clubs	-2807
▁offered	-2808
aked	-2809
cohol	-2810
▁pulled	-2811
▁signific	-2812
ada	-2813
▁hundreds	-2814
ift	-2815
▁nick	-2816
▁talk	-2817
ires	-2818
▁carol	-2819
▁clean	-2820
▁extrem	-2821
▁marriage	-2822
▁fre	-2823
▁appears	-2824
▁technology	-2825
▁sky	-2826
▁union	-2827
iger	-2828
vert	-2829
▁song	-2830
▁attend	-2831
key	-2832
▁seat	-2833
▁appeal	-2834
▁results	-2835
▁mir	-2836
lines	-2837
▁defeat	-2838
▁apparent	-2839
▁fort	-2840
▁photograph	-2841
▁din	-2842
▁env	-2843
▁jew	-2844
▁promot	-2845
▁aid	-2846
▁deli	-2847
▁repe	-2848
ication	-2849
▁jailed	-2850
icks	-2851
▁nav	-2852
▁alcohol	-2853
orry	-2854
tenham	-2855
▁animals	-2856
▁sale	-2857
▁sleep	-2858
▁fashion	-2859
▁prosecutors	-2860
▁nearby	-2861
pper	-2862
▁gay	-2863
▁contact	-2864
▁treated	-2865
bi	-2866
▁consum	-2867
▁ended	-2868
▁occur	-2869
▁pregn	-2870
▁giving	-2871
▁election	-2872
ander	-2873
icket	-2874
▁vers	-2875
▁lived	-2876
▁create	-2877
▁performance	-2878
ba	-2879
▁weather	-2880
ogn	-2881
▁exam	-2882
▁peter	-2883
▁protect	-2884
▁fighting	-2885
eper	-2886
▁inqu	-2887
▁travell	-2888
▁complete	-2889
ielder	-2890
▁region	-2891
▁towards	-2892
▁continued	-2893
▁mind	-2894
▁costs	-2895
▁wales	-2896
well	-2897
▁quarter	-2898
enn	-2899
▁homes	-2900
▁ru	-2901
▁web	-2902
▁weve	-2903
▁louis	-2904
▁ful	-2905
▁perfect	-2906
▁eventually	-2907
▁mist	-2908
fielder	-2909
▁doctor	-2910
▁individ	-2911
vin	-2912
▁fan	-2913
▁broke	-2914
▁save	-2915
▁gas	-2916
▁attacked	-2917
▁jose	-2918
▁wont	-2919
▁rescue	-2920
▁girlfriend	-2921
▁winner	-2922
▁identified	-2923
▁magaz	-2924
agn	-2925
oming	-2926
▁dangerous	-2927
▁midfielder	-2928
▁sar	-2929
▁glob	-2930
▁ship	-2931
▁opened	-2932
▁bow	-2933
▁rout	-2934
pton	-2935
▁oppos	-2936
▁sales	-2937
▁shown	-2938
▁engine	-2939
ders	-2940
uced	-2941
▁wedding	-2942
▁onto	-2943
▁hopes	-2944
▁ready	-2945
▁lawyer	-2946
▁conserv	-2947
▁significant	-2948
▁las	-2949
▁touch	-2950
▁unl	-2951
▁industry	-2952
▁floor	-2953
▁incred	-2954
gal	-2955
▁cash	-2956
▁either	-2957
▁source	-2958
▁suspect	-2959
▁education	-2960
▁adam	-2961
▁spend	-2962
▁veter	-2963
▁complet	-2964
▁finally	-2965
▁andrew	-2966
▁dream	-2967
▁owners	-2968
▁organiz	-2969
airs	-2970
cement	-2971
▁address	-2972
ban	-2973
isters	-2974
▁energy	-2975
▁sentenced	-2976
▁goo	-2977
▁passed	-2978
▁dropped	-2979
▁partner	-2980
▁financial	-2981
▁thomas	-2982
▁television	-2983
bour	-2984
▁built	-2985
▁unable	-2986
▁charity	-2987
▁lew	-2988
▁immig	-2989
▁defend	-2990
▁victor	-2991
mb	-2992
acked	-2993
▁committe	-2994
ha	-2995
ki	-2996
omm	-2997
▁ft	-2998
lect	-2999
▁rub	-3000
where	-3001
▁size	-3002
▁pakistan	-3003
▁ice	-3004
▁agreed	-3005
▁cab	-3006
▁followed	-3007
▁russia	-3008
zy	-3009
mates	-3010
▁profession	-3011
▁allegations	-3012
my	-3013
▁aim	-3014
▁date	-3015
▁male	-3016
▁rare	-3017
form	-3018
▁hous	-3019
▁raised	-3020
▁ille	-3021
▁syria	-3022
emy	-3023
ude	-3024
▁hal	-3025
▁bird	-3026
▁skin	-3027
▁surf	-3028
▁fellow	-3029
▁issued	-3030
▁defense	-3031
onse	-3032
▁luck	-3033
▁aftern	-3034
▁showing	-3035
gle	-3036
▁impact	-3037
▁request	-3038
▁increase	-3039
▁newcast	-3040
▁conditions	-3041
▁isnt	-3042
oned	-3043
▁seems	-3044
▁display	-3045
▁herself	-3046
illed	-3047
▁comput	-3048
▁italian	-3049
▁pick	-3050
▁poor	-3051
▁charl	-3052
▁daniel	-3053
ili	-3054
▁managed	-3055
don	-3056
▁cas	-3057
▁apolog	-3058
▁conference	-3059
oman	-3060
▁eat	-3061
▁conc	-3062
la	-3063
craft	-3064
▁network	-3065
▁newspaper	-3066
▁sens	-3067
icated	-3068
▁probably	-3069
gu	-3070
ils	-3071
▁moving	-3072
▁parts	-3073
▁radio	-3074
car	-3075
val	-3076
iron	-3077
▁non	-3078
▁arch	-3079
▁effort	-3080
▁recogn	-3081
▁goes	-3082
▁item	-3083
▁wait	-3084
▁words	-3085
ez	-3086
▁mos	-3087
▁nic	-3088
▁entire	-3089
▁doz	-3090
▁transfer	-3091
aging	-3092
▁movie	-3093
▁tottenham	-3094
kes	-3095
anda	-3096
▁hug	-3097
▁tor	-3098
ls	-3099
▁peace	-3100
▁evening	-3101
▁spending	-3102
▁afternoon	-3103
men	-3104
bing	-3105
▁ram	-3106
▁luc	-3107
mark	-3108
▁removed	-3109
eds	-3110
ville	-3111
▁boat	-3112
▁avoid	-3113
▁bought	-3114
▁character	-3115
▁ut	-3116
▁eyes	-3117
▁mobile	-3118
▁considered	-3119
ga	-3120
▁abd	-3121
aches	-3122
▁kids	-3123
▁check	-3124
▁tourn	-3125
▁favour	-3126
▁questions	-3127
gl	-3128
▁cry	-3129
▁jones	-3130
▁struck	-3131
▁congress	-3132
iles	-3133
ills	-3134
ero	-3135
▁ga	-3136
▁committee	-3137
come	-3138
▁obs	-3139
▁newcastle	-3140
▁fine	-3141
▁heavy	-3142
▁response	-3143
▁straight	-3144
▁alone	-3145
▁older	-3146
▁indian	-3147
▁amount	-3148
▁double	-3149
za	-3150
ado	-3151
rend	-3152
▁slow	-3153
▁queen	-3154
onstr	-3155
▁rise	-3156
▁flood	-3157
▁suffering	-3158
▁ren	-3159
▁lam	-3160
▁photographer	-3161
ros	-3162
anta	-3163
fort	-3164
▁send	-3165
iction	-3166
▁deaths	-3167
▁candid	-3168
▁completely	-3169
▁cold	-3170
essor	-3171
▁cred	-3172
▁closed	-3173
▁environ	-3174
oper	-3175
rian	-3176
▁inn	-3177
▁spain	-3178
▁scotland	-3179
▁association	-3180
uing	-3181
▁ach	-3182
▁apple	-3183
▁drink	-3184
▁african	-3185
▁trou	-3186
▁crowd	-3187
▁border	-3188
▁defender	-3189
▁kim	-3190
▁bail	-3191
▁lord	-3192
▁device	-3193
rit	-3194
▁changes	-3195
▁ok	-3196
mate	-3197
▁lee	-3198
▁answ	-3199
▁italy	-3200
▁refer	-3201
▁speech	-3202
down	-3203
▁reached	-3204
woman	-3205
▁rape	-3206
▁harry	-3207
▁calling	-3208
▁ul	-3209
ecially	-3210
iest	-3211
▁argent	-3212
▁holding	-3213
▁original	-3214
ancy	-3215
▁dism	-3216
▁especially	-3217
▁terri	-3218
▁captured	-3219
bre	-3220
akers	-3221
▁rain	-3222
▁consider	-3223
▁designed	-3224
▁magazine	-3225
▁improve	-3226
▁mexico	-3227
▁parl	-3228
▁rules	-3229
▁spoke	-3230
▁god	-3231
▁cris	-3232
▁suit	-3233
▁coupl	-3234
▁diagn	-3235
▁emerged	-3236
aped	-3237
▁jon	-3238
▁bull	-3239
▁banned	-3240
▁largest	-3241
▁companies	-3242
▁competition	-3243
gas	-3244
estern	-3245
▁served	-3246
set	-3247
▁contr	-3248
▁fro	-3249
▁thanks	-3250
▁events	-3251
oint	-3252
▁wid	-3253
ih	-3254
ert	-3255
▁francis	-3256
▁suicide	-3257
▁soldiers	-3258
▁alongside	-3259
▁fest	-3260
▁lack	-3261
ications	-3262
▁suspended	-3263
▁deg	-3264
▁encour	-3265
▁countrys	-3266
▁cub	-3267
▁atl	-3268
▁oil	-3269
▁citiz	-3270
▁fired	-3271
▁adding	-3272
▁histor	-3273
▁apartment	-3274
▁vo	-3275
ares	-3276
▁freed	-3277
▁happen	-3278
▁remember	-3279
▁syd	-3280
elling	-3281
▁americans	-3282
▁afghanistan	-3283
omp	-3284
▁tow	-3285
▁vac	-3286
▁robert	-3287
▁administration	-3288
iet	-3289
▁easter	-3290
▁global	-3291
▁responsible	-3292
▁fra	-3293
▁pow	-3294
▁band	-3295
▁growing	-3296
▁seconds	-3297
▁aircraft	-3298
rap	-3299
▁fix	-3300
▁gang	-3301
▁ryan	-3302
▁india	-3303
▁sched	-3304
▁carrying	-3305
while	-3306
▁paris	-3307
▁sorry	-3308
▁jobs	-3309
▁broken	-3310
▁higher	-3311
▁transport	-3312
▁mary	-3313
▁wonder	-3314
ibly	-3315
▁survey	-3316
▁custody	-3317
ek	-3318
▁ze	-3319
▁ask	-3320
▁sud	-3321
▁bath	-3322
▁jury	-3323
▁walking	-3324
▁environment	-3325
ature	-3326
▁concerned	-3327
▁rid	-3328
▁chem	-3329
ocking	-3330
▁insur	-3331
▁placed	-3332
▁emot	-3333
▁ruled	-3334
▁introd	-3335
▁drivers	-3336
▁ox	-3337
tery	-3338
▁dub	-3339
▁dark	-3340
▁muse	-3341
▁react	-3342
▁levels	-3343
▁gets	-3344
▁protest	-3345
resh	-3346
▁kar	-3347
▁liber	-3348
▁mater	-3349
▁spread	-3350
▁highest	-3351
iny	-3352
ych	-3353
iced	-3354
▁egy	-3355
▁nhs	-3356
elled	-3357
ighters	-3358
▁explos	-3359
▁spotted	-3360
pre	-3361
▁ty	-3362
based	-3363
▁missed	-3364
▁planning	-3365
▁understand	-3366
ube	-3367
aling	-3368
tered	-3369
▁bodies	-3370
▁figure	-3371
▁southern	-3372
uled	-3373
▁beg	-3374
▁mour	-3375
▁shared	-3376
▁virgin	-3377
▁natural	-3378
▁parliam	-3379
▁drop	-3380
▁products	-3381
▁glass	-3382
▁actress	-3383
cy	-3384
▁lose	-3385
▁asking	-3386
▁features	-3387
▁sem	-3388
▁dar	-3389
▁smart	-3390
▁linked	-3391
▁couples	-3392
▁grad	-3393
▁surr	-3394
▁effect	-3395
▁boyfriend	-3396
▁lang	-3397
▁true	-3398
jected	-3399
▁investigating	-3400
▁vote	-3401
▁restaurant	-3402
going	-3403
inary	-3404
rof	-3405
nand	-3406
▁chairman	-3407
▁appearance	-3408
▁ol	-3409
▁clinton	-3410
hew	-3411
itz	-3412
rol	-3413
▁achie	-3414
▁warning	-3415
mon	-3416
xim	-3417
▁hy	-3418
▁alb	-3419
▁gal	-3420
ropri	-3421
▁sheriff	-3422
▁throughout	-3423
oul	-3424
rief	-3425
▁ire	-3426
▁spl	-3427
ground	-3428
▁giant	-3429
▁moder	-3430
▁changed	-3431
▁wouldnt	-3432
▁reporters	-3433
▁jim	-3434
▁mach	-3435
▁tests	-3436
▁development	-3437
▁temper	-3438
rick	-3439
▁frank	-3440
▁mayor	-3441
▁britains	-3442
▁cru	-3443
▁gall	-3444
▁georg	-3445
ites	-3446
▁pur	-3447
▁swim	-3448
▁scoring	-3449
▁society	-3450
▁simply	-3451
▁troops	-3452
▁defence	-3453
▁concerns	-3454
▁meanwhile	-3455
ampton	-3456
▁claiming	-3457
anded	-3458
house	-3459
▁prior	-3460
▁experi	-3461
▁prices	-3462
▁terms	-3463
▁causing	-3464
▁olympic	-3465
gen	-3466
rim	-3467
▁talks	-3468
▁facing	-3469
▁efforts	-3470
▁occurred	-3471
▁parliament	-3472
▁opportunity	-3473
do	-3474
▁stun	-3475
▁beaut	-3476
▁collection	-3477
iful	-3478
▁opt	-3479
▁rate	-3480
▁shut	-3481
▁oh	-3482
▁dig	-3483
▁armed	-3484
unch	-3485
istry	-3486
▁pleaded	-3487
▁traffic	-3488
▁professor	-3489
arm	-3490
mit	-3491
rey	-3492
tim	-3493
▁loan	-3494
▁muslim	-3495
ads	-3496
▁yor	-3497
ellig	-3498
▁includes	-3499
arr	-3500
▁mac	-3501
▁tournament	-3502
ago	-3503
iling	-3504
▁raise	-3505
▁jul	-3506
inson	-3507
▁seeing	-3508
▁od	-3509
▁loved	-3510
▁meant	-3511
▁style	-3512
▁uns	-3513
inals	-3514
▁ronald	-3515
aren	-3516
ties	-3517
▁nas	-3518
▁paper	-3519
▁worst	-3520
▁spar	-3521
▁winter	-3522
▁apparently	-3523
va	-3524
jects	-3525
ucted	-3526
▁impress	-3527
▁mothers	-3528
▁economic	-3529
▁tas	-3530
▁positive	-3531
▁lay	-3532
unk	-3533
estic	-3534
▁instit	-3535
▁starting	-3536
▁bon	-3537
▁ensure	-3538
▁google	-3539
▁pretty	-3540
▁shortly	-3541
▁successful	-3542
▁tun	-3543
▁holly	-3544
▁horri	-3545
▁contain	-3546
▁records	-3547
▁telling	-3548
▁intellig	-3549
rab	-3550
▁lower	-3551
▁museum	-3552
▁planned	-3553
▁millions	-3554
atory	-3555
▁proud	-3556
▁flying	-3557
▁suspic	-3558
ena	-3559
oms	-3560
▁bi	-3561
▁pool	-3562
▁ring	-3563
▁cerem	-3564
ef	-3565
zz	-3566
iple	-3567
ovic	-3568
ented	-3569
angers	-3570
▁actor	-3571
▁artist	-3572
▁covered	-3573
hib	-3574
▁filed	-3575
▁written	-3576
▁visitors	-3577
▁lady	-3578
▁lake	-3579
▁mission	-3580
▁demonstr	-3581
▁mp	-3582
▁cro	-3583
▁ster	-3584
▁clash	-3585
ample	-3586
lor	-3587
ceed	-3588
▁pup	-3589
board	-3590
▁sick	-3591
van	-3592
▁eb	-3593
kins	-3594
▁bol	-3595
▁eth	-3596
▁lux	-3597
▁agre	-3598
▁amazing	-3599
▁counts	-3600
▁window	-3601
▁matches	-3602
cing	-3603
▁express	-3604
▁documents	-3605
▁initially	-3606
icop	-3607
▁yorks	-3608
▁bright	-3609
▁cook	-3610
▁influ	-3611
▁supporters	-3612
pts	-3613
▁minor	-3614
▁losing	-3615
uf	-3616
▁lic	-3617
iation	-3618
▁pitch	-3619
▁fish	-3620
▁runs	-3621
▁chann	-3622
▁budget	-3623
▁compared	-3624
▁et	-3625
▁tough	-3626
▁pounds	-3627
▁beautiful	-3628
▁absol	-3629
▁rober	-3630
▁jackson	-3631
▁sometimes	-3632
▁pu	-3633
▁ath	-3634
▁jam	-3635
▁spanish	-3636
▁talking	-3637
tic	-3638
utch	-3639
▁items	-3640
▁steve	-3641
▁annual	-3642
▁hoping	-3643
▁strike	-3644
▁helping	-3645
▁product	-3646
ability	-3647
tern	-3648
ounts	-3649
▁feed	-3650
▁massive	-3651
▁messages	-3652
▁spir	-3653
▁email	-3654
▁deputy	-3655
▁economy	-3656
▁birthday	-3657
▁passenger	-3658
min	-3659
amas	-3660
▁ros	-3661
agues	-3662
▁clearly	-3663
ko	-3664
chen	-3665
▁flat	-3666
▁prim	-3667
▁pilot	-3668
▁queens	-3669
▁advert	-3670
▁attract	-3671
▁streets	-3672
oth	-3673
rant	-3674
▁doll	-3675
▁sides	-3676
▁teenager	-3677
▁da	-3678
▁palace	-3679
▁waiting	-3680
bit	-3681
▁ones	-3682
▁stone	-3683
▁normal	-3684
▁feature	-3685
elly	-3686
▁piece	-3687
▁signs	-3688
▁jersey	-3689
▁finished	-3690
▁controversial	-3691
▁bridge	-3692
▁fox	-3693
▁batt	-3694
▁wheel	-3695
any	-3696
ari	-3697
▁haw	-3698
▁block	-3699
▁focus	-3700
▁particip	-3701
▁sons	-3702
▁illegal	-3703
▁selling	-3704
▁increasing	-3705
▁ari	-3706
▁mun	-3707
usive	-3708
▁flag	-3709
▁handed	-3710
▁origin	-3711
▁numbers	-3712
▁repeated	-3713
▁watching	-3714
▁continues	-3715
▁acad	-3716
ta	-3717
▁bey	-3718
▁kent	-3719
▁chec	-3720
▁bottom	-3721
▁standing	-3722
▁entertain	-3723
rel	-3724
▁ts	-3725
▁legs	-3726
▁egypt	-3727
▁contest	-3728
▁helicop	-3729
erve	-3730
▁village	-3731
reg	-3732
▁bond	-3733
▁rose	-3734
▁crisis	-3735
▁receive	-3736
▁maintain	-3737
▁ton	-3738
ector	-3739
▁psych	-3740
▁western	-3741
bel	-3742
▁korea	-3743
▁assistant	-3744
▁sarah	-3745
▁collect	-3746
▁feeling	-3747
▁employees	-3748
ume	-3749
▁finish	-3750
▁easy	-3751
▁choice	-3752
▁version	-3753
iance	-3754
▁healthy	-3755
▁partners	-3756
▁fresh	-3757
▁color	-3758
▁daughters	-3759
▁word	-3760
▁benefits	-3761
▁estimated	-3762
▁operations	-3763
▁particularly	-3764
▁farm	-3765
▁shel	-3766
▁citys	-3767
▁actions	-3768
▁attempted	-3769
▁bost	-3770
eed	-3771
erc	-3772
▁fbi	-3773
icles	-3774
ador	-3775
▁eld	-3776
antic	-3777
▁exact	-3778
▁stren	-3779
▁thank	-3780
ilities	-3781
olution	-3782
▁constr	-3783
▁cooper	-3784
▁iphone	-3785
▁sydney	-3786
▁suggested	-3787
nis	-3788
ode	-3789
aching	-3790
▁occas	-3791
▁shock	-3792
▁affected	-3793
▁below	-3794
▁counter	-3795
▁material	-3796
▁pregnant	-3797
ote	-3798
stant	-3799
▁ruling	-3800
bled	-3801
eless	-3802
▁arms	-3803
▁uses	-3804
▁myself	-3805
▁walked	-3806
▁independent	-3807
west	-3808
▁debut	-3809
▁villa	-3810
▁ministry	-3811
▁recovery	-3812
▁professional	-3813
▁slam	-3814
ements	-3815
▁weapons	-3816
▁gy	-3817
▁shocked	-3818
iring	-3819
ulted	-3820
▁hurt	-3821
▁christian	-3822
▁golf	-3823
▁names	-3824
▁picked	-3825
▁suspected	-3826
▁fab	-3827
▁mike	-3828
▁memor	-3829
▁underw	-3830
▁maria	-3831
▁expert	-3832
▁mailon	-3833
▁provided	-3834
▁extremely	-3835
ula	-3836
▁fifth	-3837
▁stock	-3838
▁lawsuit	-3839
nel	-3840
inks	-3841
▁mix	-3842
▁via	-3843
▁hell	-3844
▁behavi	-3845
▁garden	-3846
▁square	-3847
▁putting	-3848
▁domestic	-3849
▁confident	-3850
▁spokeswoman	-3851
osh	-3852
▁trag	-3853
over	-3854
sequ	-3855
▁womens	-3856
▁comfort	-3857
essed	-3858
▁tweeted	-3859
sex	-3860
bridge	-3861
▁truck	-3862
▁becoming	-3863
uth	-3864
wide	-3865
▁bell	-3866
▁stol	-3867
▁catch	-3868
▁multiple	-3869
▁presidential	-3870
▁obv	-3871
agram	-3872
▁coff	-3873
▁fraud	-3874
▁langu	-3875
▁filmed	-3876
▁reasons	-3877
▁drinking	-3878
▁mailonline	-3879
onic	-3880
▁practice	-3881
win	-3882
arian	-3883
▁murray	-3884
▁younger	-3885
▁neighbor	-3886
isc	-3887
▁mit	-3888
▁pra	-3889
▁tree	-3890
rants	-3891
▁tear	-3892
▁comed	-3893
▁laugh	-3894
▁throw	-3895
▁brad	-3896
▁file	-3897
▁kick	-3898
▁devast	-3899
mond	-3900
▁milan	-3901
gra	-3902
▁bob	-3903
▁adop	-3904
▁airlines	-3905
▁progress	-3906
▁increased	-3907
ilton	-3908
istic	-3909
▁soft	-3910
▁boston	-3911
▁streng	-3912
▁computer	-3913
▁majority	-3914
rison	-3915
▁gives	-3916
▁lewis	-3917
▁tay	-3918
▁neck	-3919
▁relig	-3920
▁respect	-3921
▁developed	-3922
bor	-3923
▁bear	-3924
▁chic	-3925
▁confl	-3926
▁detect	-3927
▁screen	-3928
ani	-3929
iser	-3930
▁log	-3931
cious	-3932
▁mont	-3933
▁poll	-3934
▁estate	-3935
▁stolen	-3936
▁georgia	-3937
▁document	-3938
▁programme	-3939
da	-3940
lying	-3941
ointed	-3942
▁youth	-3943
▁eating	-3944
▁modern	-3945
▁sitting	-3946
▁attended	-3947
asts	-3948
▁severe	-3949
▁singer	-3950
resp	-3951
▁pac	-3952
night	-3953
▁carl	-3954
▁alive	-3955
▁fears	-3956
▁incredible	-3957
▁diet	-3958
▁visited	-3959
ova	-3960
athan	-3961
▁estab	-3962
▁sound	-3963
▁regular	-3964
ales	-3965
▁yout	-3966
▁horse	-3967
▁beaten	-3968
▁opposition	-3969
igan	-3970
▁arab	-3971
▁sense	-3972
▁behaviour	-3973
▁childrens	-3974
▁republican	-3975
▁traditional	-3976
▁intelligence	-3977
anging	-3978
▁instagram	-3979
▁quality	-3980
▁associated	-3981
ighter	-3982
▁enfor	-3983
ropriate	-3984
ev	-3985
inc	-3986
▁manh	-3987
▁shots	-3988
▁resign	-3989
▁conduct	-3990
▁charles	-3991
▁explained	-3992
acts	-3993
andal	-3994
▁drag	-3995
▁grab	-3996
▁tony	-3997
▁signing	-3998
▁ker	-3999
▁recomm	-4000
▁euro	-4001
▁highly	-4002
▁worker	-4003
▁hod	-4004
▁lau	-4005
▁propos	-4006
▁regard	-4007
▁decades	-4008
▁outr	-4009
ighted	-4010
▁reading	-4011
▁reality	-4012
▁certainly	-4013
light	-4014
▁harm	-4015
▁ambul	-4016
▁views	-4017
▁concern	-4018
▁violent	-4019
▁youtube	-4020
known	-4021
▁crimes	-4022
▁connect	-4023
▁finding	-4024
▁gro	-4025
▁sche	-4026
keeper	-4027
▁desper	-4028
▁completed	-4029
▁diagnosed	-4030
▁rh	-4031
hold	-4032
▁greater	-4033
▁opin	-4034
▁agent	-4035
▁purch	-4036
▁trade	-4037
▁ceremony	-4038
aries	-4039
usion	-4040
▁amid	-4041
▁beauty	-4042
▁places	-4043
▁watched	-4044
gs	-4045
▁knows	-4046
▁itself	-4047
ota	-4048
▁exerc	-4049
▁destroy	-4050
▁hollywood	-4051
▁seriously	-4052
▁threatened	-4053
▁ven	-4054
▁rail	-4055
▁explain	-4056
▁committed	-4057
▁click	-4058
▁retail	-4059
▁ukrain	-4060
▁citizens	-4061
▁ri	-4062
arez	-4063
▁silver	-4064
aves	-4065
ends	-4066
erved	-4067
▁rooney	-4068
▁determined	-4069
ius	-4070
▁fuel	-4071
▁mental	-4072
▁shopping	-4073
▁standards	-4074
cri	-4075
istr	-4076
▁mum	-4077
▁article	-4078
▁islamic	-4079
ids	-4080
▁ly	-4081
▁lad	-4082
▁danc	-4083
▁crashed	-4084
▁illness	-4085
▁mountain	-4086
eces	-4087
▁exch	-4088
▁tack	-4089
▁brothers	-4090
▁population	-4091
▁apart	-4092
▁aston	-4093
▁brief	-4094
▁instr	-4095
▁lawyers	-4096
▁recorded	-4097
ico	-4098
lear	-4099
ounding	-4100
▁barack	-4101
▁ability	-4102
▁witnesses	-4103
▁andy	-4104
▁keeping	-4105
dy	-4106
uk	-4107
ya	-4108
▁oce	-4109
▁epis	-4110
▁defin	-4111
▁culture	-4112
▁usually	-4113
▁ign	-4114
▁mig	-4115
▁isis	-4116
▁nature	-4117
▁ali	-4118
▁unit	-4119
▁aband	-4120
▁remove	-4121
▁stores	-4122
▁channel	-4123
▁convers	-4124
▁ib	-4125
▁diego	-4126
▁equal	-4127
▁breath	-4128
▁eastern	-4129
▁thinking	-4130
ipe	-4131
inas	-4132
▁ble	-4133
▁kat	-4134
▁cool	-4135
▁path	-4136
▁warm	-4137
▁zeal	-4138
▁aware	-4139
▁boost	-4140
▁firef	-4141
▁dozens	-4142
▁proced	-4143
▁insisted	-4144
▁register	-4145
▁southampton	-4146
oe	-4147
met	-4148
▁dad	-4149
isher	-4150
▁kidna	-4151
▁refere	-4152
▁dismiss	-4153
▁dressed	-4154
▁recover	-4155
▁addition	-4156
▁ped	-4157
▁jord	-4158
▁mand	-4159
▁maybe	-4160
▁uncle	-4161
▁carolina	-4162
gus	-4163
oured	-4164
ppers	-4165
▁kate	-4166
▁unus	-4167
▁ways	-4168
▁subject	-4169
▁electric	-4170
▁surprise	-4171
▁cow	-4172
▁magn	-4173
▁fully	-4174
▁saved	-4175
▁reform	-4176
anch	-4177
▁ward	-4178
▁remained	-4179
▁vehicles	-4180
▁effective	-4181
ano	-4182
ipl	-4183
inho	-4184
itals	-4185
▁value	-4186
▁beyond	-4187
▁keen	-4188
▁note	-4189
▁cities	-4190
▁example	-4191
▁seeking	-4192
▁nurs	-4193
ushing	-4194
lection	-4195
▁complex	-4196
▁riv	-4197
▁imag	-4198
uclear	-4199
▁ing	-4200
utely	-4201
▁user	-4202
▁whom	-4203
▁necess	-4204
elle	-4205
▁divor	-4206
▁agreement	-4207
pe	-4208
▁whats	-4209
▁sudden	-4210
burg	-4211
igue	-4212
life	-4213
▁meth	-4214
▁session	-4215
▁targeted	-4216
▁scheduled	-4217
▁management	-4218
▁dun	-4219
sters	-4220
▁heat	-4221
▁coron	-4222
▁auction	-4223
▁location	-4224
iano	-4225
▁guy	-4226
▁mile	-4227
▁pray	-4228
▁colour	-4229
▁magistr	-4230
▁activity	-4231
▁ba	-4232
▁nom	-4233
▁bush	-4234
▁perh	-4235
▁escape	-4236
▁spring	-4237
▁ireland	-4238
▁sources	-4239
▁nice	-4240
▁lucky	-4241
▁leices	-4242
▁perhaps	-4243
▁serving	-4244
▁struggling	-4245
bury	-4246
▁jeff	-4247
▁kevin	-4248
▁woods	-4249
▁forest	-4250
▁meaning	-4251
▁critical	-4252
▁absolutely	-4253
▁ip	-4254
▁cos	-4255
▁exist	-4256
▁tragic	-4257
▁specific	-4258
▁favourite	-4259
▁alan	-4260
▁duty	-4261
▁upon	-4262
mother	-4263
▁holland	-4264
itting	-4265
▁advice	-4266
ological	-4267
▁domin	-4268
▁nuclear	-4269
▁organization	-4270
see	-4271
une	-4272
vis	-4273
rated	-4274
▁faced	-4275
▁ultim	-4276
▁parties	-4277
▁suspects	-4278
▁celebrate	-4279
▁joe	-4280
ously	-4281
▁text	-4282
▁spect	-4283
▁steven	-4284
▁taylor	-4285
▁survived	-4286
▁expensive	-4287
isl	-4288
▁ec	-4289
▁kh	-4290
bourne	-4291
coming	-4292
▁costa	-4293
▁doubt	-4294
▁prove	-4295
▁circum	-4296
▁conflict	-4297
▁evans	-4298
▁serve	-4299
▁offers	-4300
▁inspired	-4301
▁separate	-4302
aks	-4303
▁drove	-4304
▁elder	-4305
▁moham	-4306
▁paying	-4307
▁clothes	-4308
▁responsibility	-4309
▁plant	-4310
▁shirt	-4311
▁patient	-4312
▁hid	-4313
▁tells	-4314
▁parking	-4315
▁produced	-4316
▁province	-4317
▁ambulance	-4318
▁immigration	-4319
aine	-4320
▁gaz	-4321
ading	-4322
ength	-4323
ufact	-4324
▁fant	-4325
▁gaal	-4326
▁learn	-4327
▁plays	-4328
▁michel	-4329
▁physical	-4330
▁insurance	-4331
ern	-4332
outs	-4333
▁jet	-4334
▁belg	-4335
▁blog	-4336
▁israeli	-4337
▁learned	-4338
▁matthew	-4339
▁science	-4340
▁audience	-4341
▁princess	-4342
apt	-4343
iro	-4344
weight	-4345
▁delay	-4346
▁ho	-4347
▁mph	-4348
ellow	-4349
▁clar	-4350
▁purs	-4351
▁ride	-4352
esters	-4353
▁hasnt	-4354
▁oppon	-4355
▁organis	-4356
hab	-4357
▁kil	-4358
▁sav	-4359
▁lane	-4360
ickets	-4361
▁blind	-4362
stances	-4363
▁beating	-4364
▁bedroom	-4365
▁required	-4366
▁celebrity	-4367
▁originally	-4368
▁spr	-4369
▁hong	-4370
▁lines	-4371
▁decade	-4372
▁everton	-4373
ua	-4374
iju	-4375
▁pit	-4376
▁cart	-4377
▁kong	-4378
fe	-4379
▁miam	-4380
▁angry	-4381
▁voice	-4382
▁luxury	-4383
▁rushed	-4384
▁freedom	-4385
▁breaking	-4386
▁manufact	-4387
▁ii	-4388
anny	-4389
▁bac	-4390
▁pap	-4391
▁smo	-4392
▁dram	-4393
▁approach	-4394
▁controll	-4395
▁returning	-4396
mans	-4397
▁zoo	-4398
▁anth	-4399
▁wake	-4400
omatic	-4401
ulated	-4402
pa	-4403
▁kir	-4404
▁pin	-4405
▁scr	-4406
▁hart	-4407
▁micro	-4408
▁commer	-4409
▁guests	-4410
▁expressed	-4411
aming	-4412
▁tiny	-4413
▁adults	-4414
▁seemed	-4415
▁related	-4416
▁yorkshire	-4417
▁photographs	-4418
ocks	-4419
owed	-4420
▁unve	-4421
▁devices	-4422
ijuana	-4423
▁canada	-4424
▁colleagues	-4425
▁foundation	-4426
▁governments	-4427
istol	-4428
▁obamas	-4429
▁landing	-4430
▁japanese	-4431
▁helicopter	-4432
▁raf	-4433
icken	-4434
▁banks	-4435
▁embarr	-4436
▁korean	-4437
▁failing	-4438
▁politic	-4439
▁prosecutor	-4440
▁protesters	-4441
▁ko	-4442
▁cel	-4443
▁scen	-4444
ucture	-4445
▁videos	-4446
▁century	-4447
▁receiving	-4448
▁difference	-4449
uals	-4450
▁ray	-4451
▁equip	-4452
▁athlet	-4453
▁authority	-4454
▁type	-4455
▁anger	-4456
▁stret	-4457
▁growth	-4458
▁embarrass	-4459
▁protection	-4460
▁questioned	-4461
ci	-4462
▁coal	-4463
▁navy	-4464
▁books	-4465
▁favor	-4466
▁upset	-4467
▁collaps	-4468
▁wounded	-4469
▁dramatic	-4470
mes	-4471
the	-4472
ihad	-4473
▁bom	-4474
▁analy	-4475
▁belong	-4476
▁effects	-4477
▁stephen	-4478
▁confidence	-4479
▁democratic	-4480
▁individual	-4481
▁dutch	-4482
▁knife	-4483
▁likes	-4484
▁legend	-4485
▁syrian	-4486
▁retired	-4487
▁scottish	-4488
elli	-4489
▁declined	-4490
fied	-4491
▁ocean	-4492
▁active	-4493
▁phones	-4494
▁unique	-4495
▁plastic	-4496
▁ronaldo	-4497
▁complaints	-4498
▁stuff	-4499
▁virginia	-4500
icate	-4501
▁gradu	-4502
▁surge	-4503
itation	-4504
▁overall	-4505
▁teachers	-4506
▁busy	-4507
▁wins	-4508
▁crack	-4509
▁critics	-4510
▁various	-4511
▁production	-4512
▁gh	-4513
▁demand	-4514
▁failure	-4515
▁equipment	-4516
▁struggled	-4517
▁travelling	-4518
mo	-4519
▁les	-4520
agers	-4521
▁sites	-4522
▁wealth	-4523
▁trouble	-4524
▁unusual	-4525
stitution	-4526
idel	-4527
order	-4528
▁push	-4529
▁tory	-4530
▁involving	-4531
ateg	-4532
▁regul	-4533
▁ow	-4534
iana	-4535
olic	-4536
▁und	-4537
▁yes	-4538
▁blow	-4539
▁breast	-4540
▁deliver	-4541
▁setting	-4542
▁prepared	-4543
▁unfortun	-4544
har	-4545
seas	-4546
▁ebola	-4547
▁affair	-4548
▁depart	-4549
▁morgan	-4550
▁stands	-4551
▁confirm	-4552
▁moments	-4553
▁scandal	-4554
ables	-4555
itude	-4556
▁models	-4557
▁stress	-4558
▁traged	-4559
▁powerful	-4560
▁dj	-4561
▁perm	-4562
▁acting	-4563
▁settle	-4564
▁flights	-4565
▁veteran	-4566
▁celebrates	-4567
rect	-4568
▁coc	-4569
▁sort	-4570
vement	-4571
▁supre	-4572
▁lights	-4573
▁worried	-4574
▁designer	-4575
▁marijuana	-4576
▁lie	-4577
iment	-4578
▁soph	-4579
▁rival	-4580
▁debate	-4581
▁waters	-4582
▁manhatt	-4583
▁relative	-4584
▁tourists	-4585
▁criticism	-4586
aed	-4587
bon	-4588
anche	-4589
▁cath	-4590
▁cuts	-4591
▁lets	-4592
▁corpor	-4593
▁myster	-4594
▁insists	-4595
▁journey	-4596
▁viewers	-4597
ifying	-4598
▁yellow	-4599
▁damaged	-4600
▁sheriffs	-4601
▁beginning	-4602
unte	-4603
hered	-4604
▁miami	-4605
mingham	-4606
▁dating	-4607
▁sunder	-4608
▁hamilton	-4609
▁protests	-4610
hi	-4611
lers	-4612
lets	-4613
▁dna	-4614
▁joint	-4615
▁tight	-4616
▁worse	-4617
▁harris	-4618
▁reveal	-4619
▁roberts	-4620
icit	-4621
▁pub	-4622
▁chap	-4623
▁knee	-4624
▁lind	-4625
▁none	-4626
▁false	-4627
▁kelly	-4628
▁minim	-4629
▁sight	-4630
▁surface	-4631
▁zealand	-4632
▁birmingham	-4633
zen	-4634
▁arr	-4635
▁mps	-4636
▁sym	-4637
▁brook	-4638
▁analys	-4639
▁secure	-4640
▁rescued	-4641
▁ell	-4642
▁ian	-4643
▁ross	-4644
▁wide	-4645
▁simon	-4646
▁suarez	-4647
▁enjoyed	-4648
▁magistrates	-4649
▁tie	-4650
lected	-4651
▁senate	-4652
ctv	-4653
uts	-4654
▁tall	-4655
▁chest	-4656
▁punish	-4657
▁englands	-4658
▁connection	-4659
asc	-4660
▁purp	-4661
▁funeral	-4662
▁writing	-4663
▁offering	-4664
▁sexually	-4665
▁terrorist	-4666
lad	-4667
▁flow	-4668
▁swed	-4669
▁somal	-4670
▁aggress	-4671
▁volunte	-4672
▁goalkeeper	-4673
▁conservative	-4674
oted	-4675
phic	-4676
▁bin	-4677
▁hat	-4678
▁jur	-4679
▁lion	-4680
atures	-4681
▁painting	-4682
lyn	-4683
pay	-4684
▁vul	-4685
▁mort	-4686
▁plat	-4687
▁plus	-4688
▁shape	-4689
▁corner	-4690
▁exactly	-4691
▁declared	-4692
▁victoria	-4693
ule	-4694
▁frust	-4695
▁henry	-4696
▁wayne	-4697
▁chicago	-4698
▁falling	-4699
▁performed	-4700
ae	-4701
col	-4702
▁mouth	-4703
▁rates	-4704
▁fergus	-4705
▁recovered	-4706
▁repeatedly	-4707
wich	-4708
▁hed	-4709
▁tam	-4710
▁eric	-4711
▁hunt	-4712
▁featured	-4713
lig	-4714
enty	-4715
▁swan	-4716
▁vice	-4717
▁whit	-4718
illing	-4719
▁medic	-4720
▁language	-4721
▁teammate	-4722
ols	-4723
▁pad	-4724
▁bang	-4725
▁fled	-4726
▁pope	-4727
▁faith	-4728
▁stick	-4729
▁theft	-4730
▁pushed	-4731
▁weapon	-4732
▁emotional	-4733
antage	-4734
▁agents	-4735
▁dinner	-4736
▁sparked	-4737
▁governor	-4738
▁neighbour	-4739
▁responded	-4740
ware	-4741
arily	-4742
▁ariz	-4743
▁earn	-4744
▁towns	-4745
▁winds	-4746
▁babies	-4747
▁jordan	-4748
▁length	-4749
▁species	-4750
▁stabbed	-4751
▁turning	-4752
eman	-4753
▁impl	-4754
▁landed	-4755
▁argentina	-4756
▁melbourne	-4757
▁enforcement	-4758
▁gat	-4759
▁nad	-4760
▁acts	-4761
▁hull	-4762
▁kiss	-4763
▁vess	-4764
▁jen	-4765
▁cham	-4766
▁niger	-4767
▁smoke	-4768
▁obtain	-4769
▁chances	-4770
▁content	-4771
▁referee	-4772
▁tragedy	-4773
▁movement	-4774
dd	-4775
long	-4776
▁hack	-4777
▁jess	-4778
▁decide	-4779
▁havent	-4780
▁benefit	-4781
▁ongoing	-4782
▁adult	-4783
▁canad	-4784
▁prize	-4785
▁resort	-4786
▁elderly	-4787
▁peoples	-4788
▁relatives	-4789
ores	-4790
ashes	-4791
venue	-4792
▁credit	-4793
▁festival	-4794
▁olympics	-4795
▁ministers	-4796
▁rum	-4797
▁outf	-4798
▁andre	-4799
▁accounts	-4800
▁measures	-4801
▁leicester	-4802
▁militants	-4803
▁bron	-4804
▁gain	-4805
▁wish	-4806
inting	-4807
ulting	-4808
▁fatal	-4809
▁coffee	-4810
▁inquir	-4811
▁commerc	-4812
era	-4813
oma	-4814
▁kr	-4815
▁bern	-4816
▁excl	-4817
▁scar	-4818
▁tort	-4819
▁warn	-4820
▁negot	-4821
▁sunderland	-4822
tr	-4823
▁abc	-4824
▁sust	-4825
▁mcdon	-4826
▁deadly	-4827
▁editor	-4828
▁fallen	-4829
▁inquest	-4830
▁pension	-4831
▁hospitals	-4832
▁iv	-4833
▁rat	-4834
encing	-4835
▁feder	-4836
▁honor	-4837
▁messi	-4838
▁reduce	-4839
▁wenger	-4840
▁historic	-4841
bl	-4842
▁asp	-4843
▁jenn	-4844
▁verd	-4845
▁robber	-4846
▁kitchen	-4847
▁require	-4848
▁sterling	-4849
▁strength	-4850
▁barb	-4851
▁drew	-4852
▁pear	-4853
▁academy	-4854
▁arizona	-4855
▁announcement	-4856
aco	-4857
cow	-4858
aret	-4859
▁haz	-4860
▁nfl	-4861
▁rug	-4862
▁tan	-4863
orrow	-4864
▁gary	-4865
cepted	-4866
▁oscar	-4867
▁princ	-4868
▁terry	-4869
ensions	-4870
▁ticket	-4871
▁stories	-4872
▁discovery	-4873
▁anc	-4874
▁gul	-4875
▁cctv	-4876
▁dance	-4877
▁weigh	-4878
▁except	-4879
▁rivals	-4880
▁todays	-4881
ket	-4882
uge	-4883
sons	-4884
under	-4885
▁cabin	-4886
aughter	-4887
▁larger	-4888
▁testing	-4889
▁reaction	-4890
▁ess	-4891
orted	-4892
ument	-4893
▁cole	-4894
▁feels	-4895
▁admits	-4896
▁altern	-4897
▁threats	-4898
▁willing	-4899
▁suggests	-4900
urb	-4901
▁ford	-4902
▁limit	-4903
▁answer	-4904
▁degree	-4905
▁simple	-4906
▁limited	-4907
▁systems	-4908
▁teenage	-4909
▁appearances	-4910
▁wine	-4911
encies	-4912
▁films	-4913
▁heads	-4914
▁marks	-4915
▁talib	-4916
▁taxpay	-4917
▁conclud	-4918
▁escaped	-4919
▁heading	-4920
▁directly	-4921
▁identify	-4922
▁complaint	-4923
▁disappear	-4924
▁additional	-4925
▁circumstances	-4926
ela	-4927
▁ta	-4928
onym	-4929
▁bes	-4930
▁brut	-4931
▁cock	-4932
utions	-4933
▁owned	-4934
▁putin	-4935
▁entered	-4936
▁located	-4937
▁obviously	-4938
▁regularly	-4939
ella	-4940
rier	-4941
umped	-4942
nandez	-4943
▁maxim	-4944
▁please	-4945
▁luis	-4946
▁afford	-4947
▁palest	-4948
▁portug	-4949
▁suffer	-4950
▁replaced	-4951
▁visiting	-4952
▁buildings	-4953
▁innoc	-4954
▁monit	-4955
ologist	-4956
ruption	-4957
▁primary	-4958
▁grandmother	-4959
▁jay	-4960
osure	-4961
▁vegas	-4962
▁encoun	-4963
▁scream	-4964
▁fitness	-4965
▁colorado	-4966
▁entertainment	-4967
▁fake	-4968
▁occup	-4969
▁relax	-4970
▁roman	-4971
▁marine	-4972
▁anthony	-4973
▁compens	-4974
▁rodgers	-4975
ification	-4976
▁memorial	-4977
▁broadcast	-4978
▁transform	-4979
eme	-4980
arre	-4981
▁roc	-4982
isions	-4983
racted	-4984
▁chain	-4985
▁voters	-4986
▁vulner	-4987
▁machine	-4988
▁findings	-4989
▁manhattan	-4990
▁detectives	-4991
ront	-4992
▁egg	-4993
▁joy	-4994
▁nar	-4995
▁beck	-4996
▁seek	-4997
▁awards	-4998
▁classic	-4999
▁measure	-5000
▁friendly	-5001
▁cambridge	-5002
▁contacted	-5003
aly	-5004
hero	-5005
eared	-5006
▁hung	-5007
▁roof	-5008
▁negoti	-5009
▁status	-5010
▁candidate	-5011
▁teammates	-5012
▁journalist	-5013
▁journalists	-5014
▁blo	-5015
▁mol	-5016
▁metal	-5017
iversary	-5018
▁staying	-5019
▁introduced	-5020
itely	-5021
▁stro	-5022
lement	-5023
▁holds	-5024
▁episode	-5025
▁welcome	-5026
rupt	-5027
▁meat	-5028
▁lands	-5029
▁worry	-5030
▁golden	-5031
▁spoken	-5032
▁disaster	-5033
▁commercial	-5034
▁impressive	-5035
ws	-5036
gar	-5037
rad	-5038
umn	-5039
ura	-5040
ocol	-5041
▁rule	-5042
▁sympt	-5043
▁customer	-5044
▁defending	-5045
▁incidents	-5046
▁anniversary	-5047
ala	-5048
acing	-5049
▁lanc	-5050
▁nose	-5051
▁tast	-5052
▁album	-5053
▁shell	-5054
▁bottle	-5055
▁killer	-5056
▁seized	-5057
▁profile	-5058
▁supreme	-5059
▁bringing	-5060
▁offences	-5061
bro	-5062
▁ded	-5063
▁slight	-5064
▁atlanta	-5065
▁neighbours	-5066
▁rick	-5067
estyle	-5068
makers	-5069
▁stood	-5070
▁houses	-5071
▁islands	-5072
▁facility	-5073
illy	-5074
▁hou	-5075
heast	-5076
▁calm	-5077
▁courts	-5078
▁longterm	-5079
▁standard	-5080
▁destroyed	-5081
▁francisco	-5082
jo	-5083
▁ceo	-5084
erous	-5085
ledge	-5086
▁medal	-5087
▁initial	-5088
▁sending	-5089
▁interested	-5090
ching	-5091
▁saud	-5092
▁withd	-5093
▁bigger	-5094
▁jumped	-5095
▁proved	-5096
▁climate	-5097
▁outrage	-5098
▁tomorrow	-5099
▁presenter	-5100
▁toil	-5101
▁labor	-5102
▁pieces	-5103
▁skills	-5104
▁collapsed	-5105
burgh	-5106
▁urged	-5107
▁affili	-5108
▁saving	-5109
▁follows	-5110
▁mourinho	-5111
▁abandoned	-5112
▁possession	-5113
otic	-5114
▁qpr	-5115
▁weak	-5116
▁drunk	-5117
▁virus	-5118
▁bayern	-5119
▁blamed	-5120
▁legisl	-5121
▁native	-5122
▁stunning	-5123
ien	-5124
▁duc	-5125
rence	-5126
▁sets	-5127
▁trail	-5128
▁wilson	-5129
▁cameras	-5130
▁clothing	-5131
▁murdered	-5132
▁criticised	-5133
▁experienced	-5134
▁construction	-5135
▁firefighters	-5136
road	-5137
▁sha	-5138
▁bare	-5139
▁buck	-5140
▁wars	-5141
▁lying	-5142
▁sought	-5143
▁noticed	-5144
▁taliban	-5145
▁necessary	-5146
law	-5147
▁lig	-5148
▁nbc	-5149
▁guns	-5150
▁marc	-5151
▁pose	-5152
▁unlik	-5153
▁affect	-5154
▁ashley	-5155
▁nights	-5156
▁pupils	-5157
▁resour	-5158
▁exercise	-5159
▁advantage	-5160
▁ric	-5161
usted	-5162
▁hole	-5163
▁allows	-5164
▁earned	-5165
▁passion	-5166
▁identity	-5167
▁particular	-5168
aze	-5169
ulate	-5170
▁shed	-5171
▁agree	-5172
▁perman	-5173
▁poison	-5174
▁opinion	-5175
▁passing	-5176
▁section	-5177
▁michelle	-5178
▁trafford	-5179
boy	-5180
neys	-5181
prof	-5182
▁dipl	-5183
▁rand	-5184
▁birds	-5185
▁overt	-5186
▁memory	-5187
▁airline	-5188
▁creating	-5189
▁intended	-5190
▁unlikely	-5191
rah	-5192
quar	-5193
▁gam	-5194
▁nur	-5195
▁tum	-5196
irates	-5197
▁exhib	-5198
▁phill	-5199
▁planes	-5200
▁cardiff	-5201
▁reveals	-5202
idays	-5203
enders	-5204
▁bathroom	-5205
▁ferguson	-5206
▁wildlife	-5207
olas	-5208
▁stan	-5209
▁quiet	-5210
▁sharp	-5211
▁steps	-5212
▁stuck	-5213
illance	-5214
▁scheme	-5215
▁string	-5216
▁studies	-5217
▁tribute	-5218
▁employee	-5219
▁providing	-5220
ios	-5221
▁fee	-5222
▁forg	-5223
▁moon	-5224
▁panel	-5225
▁notice	-5226
▁mistake	-5227
▁tickets	-5228
▁religious	-5229
▁developing	-5230
▁individuals	-5231
▁nap	-5232
itzer	-5233
ounced	-5234
▁crist	-5235
▁split	-5236
▁suppl	-5237
▁soldier	-5238
▁allowing	-5239
▁palestin	-5240
▁elections	-5241
esc	-5242
imp	-5243
illa	-5244
omes	-5245
▁glo	-5246
anced	-5247
ential	-5248
▁anton	-5249
▁burgl	-5250
▁closer	-5251
▁miller	-5252
▁sundays	-5253
▁supposed	-5254
▁surveillance	-5255
gio	-5256
irts	-5257
more	-5258
▁syn	-5259
ansas	-5260
child	-5261
▁diam	-5262
father	-5263
▁tempor	-5264
▁trained	-5265
▁institute	-5266
market	-5267
ams	-5268
isa	-5269
▁dele	-5270
▁sees	-5271
▁trig	-5272
▁milib	-5273
▁buying	-5274
▁colomb	-5275
▁spirit	-5276
▁theyve	-5277
▁diamond	-5278
▁housing	-5279
▁smoking	-5280
▁shocking	-5281
▁symptoms	-5282
▁desperate	-5283
▁complained	-5284
ran	-5285
rees	-5286
rial	-5287
▁dra	-5288
▁map	-5289
▁option	-5290
▁mention	-5291
▁aggressive	-5292
▁understood	-5293
iat	-5294
mble	-5295
▁beij	-5296
▁todd	-5297
▁wore	-5298
ashing	-5299
▁watson	-5300
▁discrim	-5301
▁constant	-5302
▁neighborhood	-5303
▁unc	-5304
ingly	-5305
▁consp	-5306
▁irish	-5307
▁stoke	-5308
ections	-5309
▁master	-5310
▁thrown	-5311
▁correct	-5312
▁wre	-5313
▁edge	-5314
▁davis	-5315
▁leaves	-5316
▁anderson	-5317
▁direction	-5318
▁surprised	-5319
mad	-5320
war	-5321
ifer	-5322
inder	-5323
works	-5324
▁jamie	-5325
▁orange	-5326
▁familys	-5327
▁hay	-5328
▁frequ	-5329
▁denies	-5330
▁rising	-5331
▁letters	-5332
▁rangers	-5333
▁stepped	-5334
▁vulnerable	-5335
tha	-5336
etts	-5337
▁gif	-5338
opher	-5339
▁eliz	-5340
▁fifa	-5341
▁seed	-5342
▁subs	-5343
▁lunch	-5344
▁semif	-5345
▁attempts	-5346
▁rejected	-5347
▁swimming	-5348
kin	-5349
izing	-5350
▁gear	-5351
▁marg	-5352
▁brazilian	-5353
▁everybody	-5354
het	-5355
udd	-5356
etic	-5357
▁coo	-5358
▁mut	-5359
▁tag	-5360
▁vic	-5361
ports	-5362
▁salt	-5363
▁bench	-5364
▁rugby	-5365
▁sanct	-5366
▁gather	-5367
▁listed	-5368
▁awarded	-5369
▁fathers	-5370
▁determine	-5371
▁temperatures	-5372
mers	-5373
▁abb	-5374
▁gym	-5375
▁unn	-5376
▁grew	-5377
▁link	-5378
▁cells	-5379
▁santa	-5380
▁sugar	-5381
▁tennis	-5382
▁knocked	-5383
wal	-5384
▁flu	-5385
▁toy	-5386
▁ohio	-5387
▁task	-5388
▁cryst	-5389
▁patrol	-5390
▁turkey	-5391
▁funding	-5392
▁seasons	-5393
▁sin	-5394
▁bars	-5395
▁jane	-5396
▁sixth	-5397
▁chinas	-5398
▁headed	-5399
▁riding	-5400
▁toward	-5401
▁extreme	-5402
▁numerous	-5403
▁suspicion	-5404
▁leadership	-5405
▁surrounding	-5406
aeda	-5407
alds	-5408
emen	-5409
oose	-5410
ques	-5411
iracy	-5412
person	-5413
▁saudi	-5414
▁vital	-5415
▁bristol	-5416
▁accepted	-5417
▁porn	-5418
▁rodr	-5419
▁yard	-5420
weather	-5421
▁fought	-5422
▁inches	-5423
▁retire	-5424
▁philipp	-5425
▁dy	-5426
▁assess	-5427
▁affairs	-5428
▁businesses	-5429
ita	-5430
▁na	-5431
apped	-5432
▁evac	-5433
▁derby	-5434
▁condem	-5435
▁humans	-5436
▁kenned	-5437
▁produce	-5438
▁exchange	-5439
▁unveiled	-5440
▁disappeared	-5441
abor	-5442
▁ale	-5443
▁cav	-5444
▁meal	-5445
▁filled	-5446
▁scores	-5447
▁tested	-5448
▁walker	-5449
▁weekly	-5450
▁potentially	-5451
ira	-5452
▁py	-5453
town	-5454
▁aar	-5455
abeth	-5456
▁acqu	-5457
▁bags	-5458
▁arent	-5459
▁essex	-5460
▁noted	-5461
▁shops	-5462
▁spurs	-5463
▁planet	-5464
▁talent	-5465
▁wounds	-5466
▁excited	-5467
▁mexican	-5468
▁publicly	-5469
▁administr	-5470
eing	-5471
abled	-5472
iguez	-5473
▁thor	-5474
▁threw	-5475
▁happens	-5476
▁unknown	-5477
▁sporting	-5478
icts	-5479
worth	-5480
▁josh	-5481
▁munich	-5482
▁reduced	-5483
ette	-5484
▁dim	-5485
▁astr	-5486
▁mens	-5487
▁naked	-5488
▁trees	-5489
▁buried	-5490
▁oxford	-5491
▁analyst	-5492
▁charlie	-5493
▁iranian	-5494
▁tradition	-5495
▁christopher	-5496
hus	-5497
▁lev	-5498
allas	-5499
▁beer	-5500
▁cats	-5501
▁code	-5502
▁sant	-5503
▁sher	-5504
employ	-5505
istics	-5506
▁clegg	-5507
▁stole	-5508
▁trigger	-5509
▁horrific	-5510
▁jonathan	-5511
▁realised	-5512
▁attacking	-5513
▁worldwide	-5514
▁investigate	-5515
ope	-5516
char	-5517
▁fost	-5518
▁pent	-5519
▁hidden	-5520
▁makeup	-5521
▁capture	-5522
▁verdict	-5523
▁compensation	-5524
ni	-5525
sa	-5526
eys	-5527
▁flew	-5528
ington	-5529
▁jason	-5530
▁backed	-5531
▁causes	-5532
▁influence	-5533
▁operating	-5534
▁terrorism	-5535
▁atm	-5536
etime	-5537
▁helps	-5538
▁prosp	-5539
▁ambass	-5540
▁boxing	-5541
▁chocol	-5542
▁judges	-5543
▁regime	-5544
▁frances	-5545
▁highway	-5546
▁definitely	-5547
ja	-5548
▁adj	-5549
iform	-5550
▁canc	-5551
▁cruc	-5552
▁empt	-5553
ipping	-5554
stitute	-5555
▁joseph	-5556
▁replace	-5557
▁uniteds	-5558
ste	-5559
fast	-5560
▁dur	-5561
▁jes	-5562
▁mam	-5563
▁asian	-5564
▁craig	-5565
▁doors	-5566
▁liter	-5567
▁prefer	-5568
▁consult	-5569
▁dismissed	-5570
▁followers	-5571
▁km	-5572
▁zim	-5573
▁edin	-5574
▁pled	-5575
▁balot	-5576
▁bills	-5577
▁brian	-5578
▁chase	-5579
▁route	-5580
ography	-5581
▁moscow	-5582
▁joining	-5583
▁presence	-5584
▁restrict	-5585
▁investment	-5586
▁controversy	-5587
▁commissioner	-5588
acle	-5589
▁jac	-5590
right	-5591
▁blame	-5592
▁roger	-5593
▁proceed	-5594
▁swansea	-5595
dom	-5596
hens	-5597
ridge	-5598
▁core	-5599
▁hamp	-5600
▁firms	-5601
▁basket	-5602
▁formula	-5603
▁patrick	-5604
▁prompted	-5605
▁activities	-5606
▁cards	-5607
▁sweet	-5608
▁trend	-5609
▁uniform	-5610
▁household	-5611
▁continuing	-5612
▁considering	-5613
▁ah	-5614
know	-5615
eding	-5616
eland	-5617
▁chat	-5618
▁leon	-5619
▁anonym	-5620
▁refuge	-5621
▁commons	-5622
▁negative	-5623
▁occasion	-5624
agon	-5625
aire	-5626
nell	-5627
▁emp	-5628
▁bike	-5629
▁hate	-5630
▁lots	-5631
▁rent	-5632
▁zone	-5633
icient	-5634
▁atlet	-5635
▁tiger	-5636
▁beijing	-5637
▁hitting	-5638
▁division	-5639
▁alexander	-5640
▁background	-5641
fall	-5642
imate	-5643
ulous	-5644
▁fame	-5645
▁ferr	-5646
▁hodg	-5647
▁pink	-5648
▁bruce	-5649
▁seats	-5650
▁shoes	-5651
utation	-5652
▁stayed	-5653
▁platform	-5654
▁teenagers	-5655
▁candidates	-5656
can	-5657
die	-5658
oyd	-5659
▁gil	-5660
▁pig	-5661
▁advoc	-5662
▁goods	-5663
▁method	-5664
▁surviv	-5665
▁exposed	-5666
▁canadian	-5667
▁learning	-5668
▁saturdays	-5669
zed	-5670
bell	-5671
▁naz	-5672
▁nin	-5673
related	-5674
▁deploy	-5675
▁exclusive	-5676
oli	-5677
ardo	-5678
enez	-5679
▁atmosp	-5680
▁recall	-5681
▁starts	-5682
▁cricket	-5683
▁privacy	-5684
▁detective	-5685
▁presented	-5686
rog	-5687
▁alas	-5688
▁leeds	-5689
▁traum	-5690
▁youve	-5691
▁locked	-5692
▁houston	-5693
▁sisters	-5694
▁detained	-5695
▁fighters	-5696
▁miliband	-5697
▁struggle	-5698
▁suddenly	-5699
▁conducted	-5700
▁immediate	-5701
▁approached	-5702
away	-5703
▁usa	-5704
▁greg	-5705
▁kings	-5706
▁marry	-5707
▁posed	-5708
▁argued	-5709
▁income	-5710
▁kicked	-5711
▁orders	-5712
ointment	-5713
▁brooklyn	-5714
▁disorder	-5715
▁proposed	-5716
▁rodriguez	-5717
eck	-5718
▁jr	-5719
star	-5720
▁gab	-5721
▁rio	-5722
▁grey	-5723
▁thro	-5724
▁appre	-5725
▁client	-5726
▁sevent	-5727
▁widely	-5728
▁granted	-5729
▁ukraine	-5730
▁delivered	-5731
tons	-5732
wise	-5733
enses	-5734
▁gift	-5735
▁nasa	-5736
▁plea	-5737
▁fruit	-5738
▁solar	-5739
▁spell	-5740
▁valley	-5741
▁distance	-5742
▁democrats	-5743
▁inspector	-5744
▁fo	-5745
oses	-5746
▁danny	-5747
▁jihad	-5748
▁clinic	-5749
▁factor	-5750
▁scenes	-5751
▁catholic	-5752
▁changing	-5753
▁consumers	-5754
▁searching	-5755
▁agu	-5756
place	-5757
▁cous	-5758
▁gaza	-5759
▁gord	-5760
anchez	-5761
▁funds	-5762
▁hills	-5763
▁moves	-5764
▁rooms	-5765
▁driven	-5766
▁parent	-5767
▁divorce	-5768
▁posting	-5769
▁resources	-5770
yes	-5771
esty	-5772
▁gig	-5773
▁nut	-5774
▁highl	-5775
▁feared	-5776
▁guards	-5777
▁indones	-5778
▁maximum	-5779
▁sanchez	-5780
▁intention	-5781
▁appropriate	-5782
▁gib	-5783
▁rig	-5784
ining	-5785
▁liby	-5786
▁tied	-5787
▁posts	-5788
▁campus	-5789
▁easily	-5790
▁titles	-5791
▁achieve	-5792
▁digital	-5793
▁dispute	-5794
▁options	-5795
▁survive	-5796
▁promised	-5797
▁coalition	-5798
▁ll	-5799
elsh	-5800
mail	-5801
▁joke	-5802
▁tend	-5803
rapped	-5804
▁knock	-5805
▁roads	-5806
▁abused	-5807
▁approved	-5808
▁personnel	-5809
ppy	-5810
rep	-5811
vey	-5812
care	-5813
▁lank	-5814
▁vacc	-5815
▁leads	-5816
▁mario	-5817
▁remar	-5818
▁tears	-5819
▁malays	-5820
▁concent	-5821
▁sharing	-5822
▁baseball	-5823
▁mcdonalds	-5824
▁challenges	-5825
▁communities	-5826
▁gon	-5827
echan	-5828
▁brom	-5829
▁stom	-5830
▁wing	-5831
▁galax	-5832
▁hoped	-5833
▁raped	-5834
▁pilots	-5835
▁offence	-5836
▁trapped	-5837
▁windows	-5838
▁affiliate	-5839
▁elizabeth	-5840
▁fantastic	-5841
▁revolution	-5842
iter	-5843
▁bik	-5844
▁gad	-5845
▁sri	-5846
break	-5847
▁luke	-5848
▁rough	-5849
▁treas	-5850
▁welsh	-5851
▁write	-5852
▁accomp	-5853
▁button	-5854
▁choose	-5855
▁iconic	-5856
▁paramed	-5857
ila	-5858
▁ank	-5859
▁adds	-5860
▁pock	-5861
▁quit	-5862
▁accus	-5863
▁duche	-5864
▁nurse	-5865
▁plate	-5866
▁acknow	-5867
▁remark	-5868
▁therap	-5869
▁jessica	-5870
▁stomach	-5871
▁unclear	-5872
▁coverage	-5873
▁policies	-5874
▁remaining	-5875
box	-5876
leys	-5877
▁gap	-5878
achus	-5879
▁asia	-5880
▁tact	-5881
▁vast	-5882
▁grant	-5883
▁begins	-5884
▁brutal	-5885
▁plenty	-5886
standing	-5887
▁cocaine	-5888
▁founder	-5889
▁atletico	-5890
▁prosecution	-5891
▁vs	-5892
kings	-5893
uties	-5894
▁newly	-5895
▁truth	-5896
▁hodgson	-5897
▁princip	-5898
▁raising	-5899
achusetts	-5900
▁quarterf	-5901
▁corruption	-5902
▁generation	-5903
hem	-5904
inn	-5905
pson	-5906
▁biz	-5907
▁bos	-5908
▁sty	-5909
cript	-5910
▁ukip	-5911
▁virt	-5912
▁brill	-5913
▁strip	-5914
▁shares	-5915
▁belgium	-5916
▁grabbed	-5917
▁attorneys	-5918
▁explosion	-5919
▁hopefully	-5920
▁lifestyle	-5921
▁republicans	-5922
olk	-5923
▁sac	-5924
▁bent	-5925
▁gian	-5926
▁gates	-5927
ression	-5928
▁womans	-5929
▁smaller	-5930
▁chemical	-5931
▁activists	-5932
▁balotelli	-5933
▁neighbors	-5934
▁threatening	-5935
▁massachusetts	-5936
▁stu	-5937
▁wer	-5938
cedes	-5939
▁reun	-5940
▁toll	-5941
phones	-5942
▁convin	-5943
▁switch	-5944
▁tackle	-5945
▁unless	-5946
▁crystal	-5947
▁grounds	-5948
▁heavily	-5949
▁behavior	-5950
▁accepting	-5951
wo	-5952
ogue	-5953
iders	-5954
▁thre	-5955
action	-5956
▁pleas	-5957
▁theat	-5958
▁supply	-5959
▁arrival	-5960
▁kennedy	-5961
▁totally	-5962
▁warrant	-5963
▁hernandez	-5964
▁devastated	-5965
▁presidents	-5966
iar	-5967
wall	-5968
verse	-5969
▁guys	-5970
▁dubai	-5971
▁abroad	-5972
▁combat	-5973
▁embass	-5974
▁mechan	-5975
▁tracks	-5976
▁neither	-5977
▁politics	-5978
▁bru	-5979
ighth	-5980
maker	-5981
▁rene	-5982
▁robin	-5983
▁thail	-5984
▁yards	-5985
▁deeply	-5986
▁object	-5987
▁bizarre	-5988
▁jennifer	-5989
▁punishment	-5990
▁comfortable	-5991
din	-5992
▁wim	-5993
▁ment	-5994
▁shad	-5995
lished	-5996
▁conce	-5997
▁voted	-5998
▁discip	-5999
▁coroner	-6000
▁masters	-6001
▁structure	-6002
▁fu	-6003
fire	-6004
▁eve	-6005
acity	-6006
chell	-6007
ucing	-6008
▁welf	-6009
▁chose	-6010
▁qaeda	-6011
▁tries	-6012
▁arrive	-6013
▁casual	-6014
▁frozen	-6015
▁electron	-6016
▁chocolate	-6017
▁describes	-6018
wart	-6019
▁ney	-6020
asted	-6021
state	-6022
▁bure	-6023
▁decor	-6024
▁empty	-6025
▁novel	-6026
▁viral	-6027
▁bosses	-6028
▁peters	-6029
▁remote	-6030
▁soccer	-6031
▁toilet	-6032
▁compete	-6033
▁consequ	-6034
▁distrib	-6035
▁duchess	-6036
▁agencies	-6037
▁enjoying	-6038
▁reputation	-6039
▁terrorists	-6040
▁conversation	-6041
wa	-6042
ivity	-6043
▁cher	-6044
▁prix	-6045
▁barcl	-6046
▁scale	-6047
▁yours	-6048
▁prepar	-6049
▁relief	-6050
▁dollars	-6051
▁ambassador	-6052
▁celebrating	-6053
iev	-6054
pet	-6055
aken	-6056
omen	-6057
▁guar	-6058
▁vent	-6059
▁brend	-6060
▁marsh	-6061
▁whate	-6062
▁rocket	-6063
▁beckham	-6064
▁liberal	-6065
▁robbery	-6066
▁barclays	-6067
▁somebody	-6068
▁mayweather	-6069
dog	-6070
▁ay	-6071
iner	-6072
▁dor	-6073
▁lob	-6074
antly	-6075
▁chef	-6076
▁fred	-6077
▁jean	-6078
▁khan	-6079
▁lock	-6080
▁hosts	-6081
▁songs	-6082
▁cutting	-6083
▁discover	-6084
▁normally	-6085
▁proposal	-6086
▁slightly	-6087
▁assaulted	-6088
▁edinburgh	-6089
▁prisoners	-6090
▁unfortunately	-6091
cia	-6092
burn	-6093
cott	-6094
girl	-6095
grav	-6096
▁max	-6097
uated	-6098
▁isol	-6099
▁rush	-6100
▁grown	-6101
▁disney	-6102
▁movies	-6103
▁attempting	-6104
▁permission	-6105
oles	-6106
osing	-6107
▁plot	-6108
ounted	-6109
▁reward	-6110
▁companys	-6111
▁properly	-6112
▁unemploy	-6113
▁whatever	-6114
▁decisions	-6115
▁delighted	-6116
ato	-6117
gree	-6118
▁cig	-6119
aving	-6120
inent	-6121
▁tech	-6122
▁crazy	-6123
▁finger	-6124
▁philip	-6125
▁winger	-6126
▁consist	-6127
▁characters	-6128
▁alternative	-6129
cas	-6130
rome	-6131
▁cha	-6132
annah	-6133
lings	-6134
▁pard	-6135
▁ships	-6136
▁tower	-6137
▁waste	-6138
▁dallas	-6139
▁foster	-6140
▁justin	-6141
▁rebels	-6142
▁territ	-6143
▁pushing	-6144
▁welfare	-6145
▁robinson	-6146
▁attending	-6147
▁impressed	-6148
▁performing	-6149
ucks	-6150
point	-6151
▁badly	-6152
▁cruel	-6153
▁pelle	-6154
▁teens	-6155
▁strict	-6156
▁arrests	-6157
▁dancing	-6158
▁focused	-6159
▁variety	-6160
▁delivery	-6161
▁medicine	-6162
▁concluded	-6163
▁connected	-6164
▁happening	-6165
▁politicians	-6166
arch	-6167
▁liqu	-6168
▁rein	-6169
▁racing	-6170
▁racist	-6171
▁regional	-6172
▁collision	-6173
dale	-6174
umps	-6175
▁aer	-6176
▁tru	-6177
athon	-6178
ishes	-6179
▁gulf	-6180
▁sean	-6181
americ	-6182
▁catal	-6183
▁bureau	-6184
▁deliber	-6185
▁prepare	-6186
▁greatest	-6187
▁managers	-6188
▁midfield	-6189
▁thompson	-6190
▁thoughts	-6191
▁probation	-6192
▁ars	-6193
▁ski	-6194
mouth	-6195
▁burns	-6196
▁smugg	-6197
▁advent	-6198
▁balance	-6199
▁cleared	-6200
▁fernand	-6201
▁possibly	-6202
▁offensive	-6203
▁recommend	-6204
▁conviction	-6205
anes	-6206
▁dry	-6207
▁gop	-6208
▁nep	-6209
herof	-6210
▁lift	-6211
▁sole	-6212
▁funny	-6213
▁parks	-6214
ictions	-6215
▁nobody	-6216
▁trophy	-6217
▁artists	-6218
▁winners	-6219
▁elsewhere	-6220
▁tip	-6221
owned	-6222
loaded	-6223
▁veget	-6224
acement	-6225
▁graham	-6226
▁junior	-6227
▁manuel	-6228
▁salary	-6229
▁chicken	-6230
▁russell	-6231
▁arriving	-6232
▁preparing	-6233
osis	-6234
▁rot	-6235
▁sel	-6236
borne	-6237
▁hits	-6238
▁mall	-6239
▁samp	-6240
degree	-6241
▁initi	-6242
▁motiv	-6243
▁dubbed	-6244
▁minimum	-6245
▁tonight	-6246
▁veterans	-6247
▁opponents	-6248
▁celebrities	-6249
▁established	-6250
ded	-6251
ria	-6252
▁nig	-6253
orses	-6254
▁juan	-6255
▁snap	-6256
▁spin	-6257
▁guide	-6258
▁brands	-6259
▁comedy	-6260
▁gordon	-6261
▁intent	-6262
▁subsequ	-6263
▁internal	-6264
▁hampshire	-6265
▁taxpayers	-6266
▁manufactur	-6267
▁independence	-6268
▁lib	-6269
agger	-6270
▁gray	-6271
▁mcil	-6272
▁aimed	-6273
▁davies	-6274
▁edward	-6275
▁excell	-6276
▁rivers	-6277
▁vessel	-6278
▁fishing	-6279
▁londons	-6280
▁analysis	-6281
▁featuring	-6282
▁infection	-6283
▁basketball	-6284
▁possibility	-6285
▁lap	-6286
▁sof	-6287
▁tsh	-6288
stone	-6289
▁sett	-6290
▁blast	-6291
▁gross	-6292
▁loves	-6293
▁stuart	-6294
▁recalled	-6295
▁incredibly	-6296
▁spokesperson	-6297
▁alt	-6298
▁neu	-6299
elson	-6300
▁debt	-6301
▁gerr	-6302
▁mack	-6303
▁burst	-6304
▁falls	-6305
▁paint	-6306
▁penns	-6307
iration	-6308
▁amazon	-6309
▁columb	-6310
▁listen	-6311
▁wonderful	-6312
▁celebrated	-6313
▁increasingly	-6314
run	-6315
▁abu	-6316
upted	-6317
▁dust	-6318
▁math	-6319
▁nich	-6320
▁notes	-6321
▁solid	-6322
essions	-6323
▁bullet	-6324
▁detail	-6325
▁imposs	-6326
▁jewish	-6327
▁edwards	-6328
▁inquiry	-6329
▁praised	-6330
▁crossing	-6331
▁favorite	-6332
▁mercedes	-6333
▁permanent	-6334
▁specialist	-6335
ple	-6336
adel	-6337
▁laid	-6338
▁touc	-6339
▁fined	-6340
▁hired	-6341
▁sandy	-6342
▁hughes	-6343
▁hurric	-6344
▁promote	-6345
▁americas	-6346
▁shoulder	-6347
▁youngster	-6348
▁communications	-6349
itt	-6350
izes	-6351
▁suc	-6352
▁gate	-6353
▁utah	-6354
ortion	-6355
▁discl	-6356
▁celtic	-6357
▁illust	-6358
▁resist	-6359
▁mystery	-6360
▁sleeping	-6361
▁procedure	-6362
▁lb	-6363
kers	-6364
reek	-6365
▁sed	-6366
▁vin	-6367
▁drama	-6368
▁satis	-6369
▁turns	-6370
▁emails	-6371
▁thinks	-6372
idelines	-6373
▁pleased	-6374
▁interior	-6375
▁establish	-6376
▁kl	-6377
acht	-6378
▁bowl	-6379
▁emma	-6380
alling	-6381
season	-6382
▁basis	-6383
▁inapp	-6384
▁amanda	-6385
▁apples	-6386
▁insist	-6387
▁jeremy	-6388
▁portra	-6389
▁degrees	-6390
▁imagine	-6391
▁teaching	-6392
▁appearing	-6393
▁civilians	-6394
▁relatively	-6395
▁disappointed	-6396
abis	-6397
▁cord	-6398
▁mine	-6399
▁sames	-6400
▁forget	-6401
▁apology	-6402
▁fighter	-6403
▁immigrants	-6404
zing	-6405
▁cbs	-6406
▁hud	-6407
class	-6408
erves	-6409
ylvan	-6410
▁fees	-6411
▁larg	-6412
bledon	-6413
▁childs	-6414
▁easier	-6415
▁sacked	-6416
▁transl	-6417
onscious	-6418
▁brendan	-6419
▁martine	-6420
▁pointed	-6421
▁samesex	-6422
▁homeless	-6423
▁brilliant	-6424
▁dedicated	-6425
▁registered	-6426
▁championships	-6427
cot	-6428
▁lav	-6429
▁copy	-6430
▁hang	-6431
▁mars	-6432
▁puts	-6433
▁laura	-6434
▁papers	-6435
▁anfield	-6436
▁battery	-6437
▁pennsylvan	-6438
▁partnership	-6439
emic	-6440
itan	-6441
onia	-6442
ouri	-6443
▁kur	-6444
▁pod	-6445
▁sne	-6446
▁tea	-6447
▁stur	-6448
ffield	-6449
▁adopt	-6450
▁resol	-6451
▁castle	-6452
▁mostly	-6453
▁notting	-6454
▁routine	-6455
▁function	-6456
▁conspiracy	-6457
▁facilities	-6458
▁investigated	-6459
ois	-6460
wan	-6461
icip	-6462
▁dol	-6463
▁pul	-6464
▁buff	-6465
▁deter	-6466
▁dozen	-6467
▁risks	-6468
▁hotels	-6469
▁select	-6470
▁stable	-6471
▁embassy	-6472
▁knowing	-6473
▁striking	-6474
▁thailand	-6475
▁collected	-6476
▁knowledge	-6477
▁marketing	-6478
▁wimbledon	-6479
wick	-6480
▁eleph	-6481
▁overw	-6482
▁spray	-6483
▁wound	-6484
▁burned	-6485
quarters	-6486
▁engaged	-6487
▁inmates	-6488
▁reflect	-6489
▁pregnancy	-6490
▁supporting	-6491
▁organisation	-6492
tv	-6493
gue	-6494
inct	-6495
oard	-6496
inois	-6497
▁toky	-6498
▁perry	-6499
▁belief	-6500
▁sergio	-6501
▁searched	-6502
▁stealing	-6503
▁yearolds	-6504
▁cristiano	-6505
▁sheffield	-6506
▁assistance	-6507
mund	-6508
▁clip	-6509
▁fill	-6510
▁aaron	-6511
▁griff	-6512
▁rapid	-6513
▁shark	-6514
▁garage	-6515
▁powers	-6516
▁satell	-6517
▁largely	-6518
▁rolling	-6519
▁aviation	-6520
▁projects	-6521
▁documentary	-6522
▁awa	-6523
▁kay	-6524
igned	-6525
▁iron	-6526
▁wave	-6527
verted	-6528
▁hawai	-6529
▁upper	-6530
▁height	-6531
▁kansas	-6532
▁clients	-6533
▁invited	-6534
▁smashed	-6535
▁extended	-6536
▁atmosphere	-6537
▁impossible	-6538
▁celebration	-6539
▁bry	-6540
▁hyp	-6541
fying	-6542
mbley	-6543
▁bart	-6544
▁allen	-6545
▁crews	-6546
▁drone	-6547
inating	-6548
▁behalf	-6549
▁booked	-6550
▁cruise	-6551
▁gained	-6552
▁switzer	-6553
▁gathered	-6554
▁provides	-6555
▁reaching	-6556
▁software	-6557
▁encourage	-6558
▁surprising	-6559
▁ultimately	-6560
▁application	-6561
▁ny	-6562
hill	-6563
usal	-6564
erted	-6565
▁bale	-6566
▁barr	-6567
▁bone	-6568
▁fewer	-6569
▁arsene	-6570
▁stages	-6571
▁remarks	-6572
▁martinez	-6573
▁overwhel	-6574
▁socalled	-6575
▁hide	-6576
▁bound	-6577
▁guest	-6578
▁poses	-6579
▁ridic	-6580
▁aggrav	-6581
▁firing	-6582
▁giants	-6583
▁metres	-6584
▁scared	-6585
▁accompan	-6586
▁marathon	-6587
▁paramedics	-6588
▁pennsylvania	-6589
azz	-6590
hal	-6591
▁ade	-6592
▁gri	-6593
▁revel	-6594
▁spons	-6595
▁aboard	-6596
▁branch	-6597
▁harass	-6598
▁honour	-6599
▁neymar	-6600
▁writer	-6601
▁wembley	-6602
▁innocent	-6603
▁shoppers	-6604
▁acknowled	-6605
▁pakistani	-6606
▁suspicious	-6607
week	-6608
▁ted	-6609
▁pill	-6610
▁stunt	-6611
▁honest	-6612
▁romney	-6613
▁werent	-6614
▁command	-6615
▁hunting	-6616
▁mcilroy	-6617
▁strikes	-6618
▁cannabis	-6619
▁illinois	-6620
▁instruct	-6621
▁terrible	-6622
▁statements	-6623
▁involvement	-6624
▁disappearance	-6625
▁az	-6626
ache	-6627
eline	-6628
▁gene	-6629
▁torn	-6630
▁bloom	-6631
▁jimmy	-6632
▁darren	-6633
▁gender	-6634
▁lifted	-6635
▁posing	-6636
▁checked	-6637
▁mansion	-6638
▁nigeria	-6639
▁pulling	-6640
▁tourism	-6641
▁stations	-6642
▁otherwise	-6643
acey	-6644
astr	-6645
▁neil	-6646
▁scan	-6647
▁seal	-6648
▁symb	-6649
▁nadal	-6650
▁swiss	-6651
▁walls	-6652
▁horses	-6653
▁morris	-6654
▁outfit	-6655
▁becomes	-6656
▁campbell	-6657
▁palestinian	-6658
▁environmental	-6659
▁discrimination	-6660
iot	-6661
yal	-6662
▁ug	-6663
acks	-6664
otte	-6665
ucky	-6666
▁lun	-6667
▁rab	-6668
rahim	-6669
▁bris	-6670
▁sail	-6671
▁habit	-6672
▁overs	-6673
▁wides	-6674
▁excess	-6675
▁murphy	-6676
▁defended	-6677
▁supermarket	-6678
▁constitution	-6679
▁dc	-6680
▁shr	-6681
▁lung	-6682
▁unex	-6683
▁drawn	-6684
▁finds	-6685
▁saint	-6686
▁shore	-6687
▁teeth	-6688
agement	-6689
atherine	-6690
▁branded	-6691
▁targets	-6692
▁officially	-6693
▁competitive	-6694
lah	-6695
uan	-6696
like	-6697
▁wif	-6698
areth	-6699
▁brid	-6700
▁horn	-6701
▁inte	-6702
▁mamm	-6703
▁mull	-6704
▁grass	-6705
▁patri	-6706
▁rural	-6707
▁contam	-6708
▁juvent	-6709
▁studio	-6710
▁replied	-6711
▁criminals	-6712
▁containing	-6713
▁grandfather	-6714
▁transportation	-6715
wing	-6716
ality	-6717
ellor	-6718
hetic	-6719
pread	-6720
▁disg	-6721
▁ends	-6722
▁glam	-6723
▁grie	-6724
▁rear	-6725
▁tank	-6726
▁ties	-6727
▁wreck	-6728
▁enthus	-6729
▁fortun	-6730
▁jewell	-6731
▁narrow	-6732
▁stated	-6733
▁visits	-6734
▁tourist	-6735
▁attached	-6736
▁extraord	-6737
abet	-6738
▁dod	-6739
▁ree	-6740
▁glad	-6741
▁lies	-6742
areness	-6743
▁gareth	-6744
▁trains	-6745
▁ancient	-6746
▁crucial	-6747
▁hillary	-6748
▁shelter	-6749
▁flooding	-6750
▁juventus	-6751
▁yourself	-6752
▁reporting	-6753
▁convention	-6754
▁participants	-6755
pro	-6756
bles	-6757
iece	-6758
umes	-6759
wear	-6760
▁duke	-6761
▁pole	-6762
▁apply	-6763
▁heath	-6764
covered	-6765
▁facial	-6766
▁writes	-6767
inations	-6768
▁federer	-6769
▁guarant	-6770
▁pacific	-6771
sc	-6772
athy	-6773
bands	-6774
▁anna	-6775
▁iraqi	-6776
▁smile	-6777
▁susan	-6778
otherap	-6779
▁fisher	-6780
▁hosted	-6781
▁plants	-6782
▁remind	-6783
▁gerrard	-6784
▁ibrahim	-6785
▁atlantic	-6786
▁contains	-6787
▁disabled	-6788
▁egyptian	-6789
▁informed	-6790
▁shouldnt	-6791
▁hurricane	-6792
▁screaming	-6793
▁nottingham	-6794
lec	-6795
osen	-6796
▁wet	-6797
ommod	-6798
▁anne	-6799
▁taxi	-6800
adelph	-6801
▁adams	-6802
▁chanc	-6803
▁links	-6804
▁garcia	-6805
▁bombing	-6806
▁accommod	-6807
▁mitchell	-6808
▁referred	-6809
▁attracted	-6810
▁awareness	-6811
▁overnight	-6812
▁southwest	-6813
▁travelled	-6814
▁advertising	-6815
▁legislation	-6816
ati	-6817
▁nd	-6818
foot	-6819
rate	-6820
semb	-6821
▁fier	-6822
▁loud	-6823
▁pier	-6824
▁basic	-6825
▁tokyo	-6826
▁cancel	-6827
▁drinks	-6828
▁ending	-6829
▁hanging	-6830
▁seattle	-6831
▁strange	-6832
▁upcoming	-6833
▁philadelph	-6834
▁widespread	-6835
gun	-6836
ima	-6837
▁lt	-6838
real	-6839
rell	-6840
▁caps	-6841
▁craw	-6842
▁diss	-6843
▁ipad	-6844
▁stem	-6845
▁alert	-6846
▁ankle	-6847
▁brave	-6848
▁fract	-6849
▁michigan	-6850
▁automatic	-6851
▁supported	-6852
▁temporary	-6853
▁territory	-6854
▁recovering	-6855
▁electricity	-6856
amo	-6857
asy	-6858
cho	-6859
lee	-6860
ums	-6861
▁tu	-6862
▁wy	-6863
bish	-6864
eted	-6865
▁nov	-6866
▁tes	-6867
▁bund	-6868
▁hend	-6869
▁reid	-6870
▁cable	-6871
▁hadnt	-6872
▁indec	-6873
▁prompt	-6874
▁fortune	-6875
▁improved	-6876
▁charlotte	-6877
bys	-6878
▁cu	-6879
ardy	-6880
gate	-6881
umed	-6882
▁lbs	-6883
▁mcl	-6884
▁harv	-6885
▁liga	-6886
▁acted	-6887
▁baker	-6888
▁dying	-6889
▁thick	-6890
▁desert	-6891
▁fiance	-6892
▁galaxy	-6893
▁throat	-6894
▁adopted	-6895
▁closing	-6896
▁argument	-6897
▁capacity	-6898
▁midlands	-6899
▁missouri	-6900
▁locations	-6901
▁afterwards	-6902
▁statistics	-6903
▁performances	-6904
oft	-6905
▁wo	-6906
deal	-6907
half	-6908
▁itv	-6909
▁rif	-6910
inate	-6911
month	-6912
▁raid	-6913
▁slim	-6914
▁twins	-6915
▁vatic	-6916
▁commander	-6917
▁sustained	-6918
nam	-6919
cles	-6920
part	-6921
roid	-6922
itage	-6923
▁dave	-6924
▁owns	-6925
▁pace	-6926
▁unac	-6927
▁categ	-6928
▁coord	-6929
▁grace	-6930
▁serge	-6931
▁taste	-6932
ization	-6933
▁archit	-6934
▁safely	-6935
▁element	-6936
▁factory	-6937
▁pellegr	-6938
▁colleague	-6939
▁encounter	-6940
▁implement	-6941
▁footballer	-6942
▁speculation	-6943
bal	-6944
iti	-6945
izz	-6946
oen	-6947
mart	-6948
▁von	-6949
▁pron	-6950
endent	-6951
▁capable	-6952
▁infected	-6953
▁petition	-6954
▁breathing	-6955
▁childhood	-6956
▁properties	-6957
▁switzerland	-6958
cs	-6959
ami	-6960
lan	-6961
oop	-6962
▁si	-6963
erez	-6964
icut	-6965
shot	-6966
▁mah	-6967
▁tab	-6968
▁intr	-6969
▁lamp	-6970
▁plun	-6971
▁turk	-6972
▁worn	-6973
▁cited	-6974
▁mansl	-6975
▁meals	-6976
▁trick	-6977
▁whist	-6978
▁austin	-6979
▁clever	-6980
▁welcom	-6981
▁factors	-6982
▁combined	-6983
▁mohammed	-6984
▁obtained	-6985
▁producer	-6986
▁breakfast	-6987
▁contained	-6988
▁excellent	-6989
▁extensive	-6990
▁procedures	-6991
▁temperature	-6992
odes	-6993
▁bah	-6994
▁hiv	-6995
ategy	-6996
bling	-6997
orous	-6998
▁embr	-6999
▁advis	-7000
▁cleve	-7001
▁probe	-7002
▁rally	-7003
▁truly	-7004
▁yemen	-7005
▁brings	-7006
▁hazard	-7007
▁hiding	-7008
▁knight	-7009
▁antonio	-7010
▁filming	-7011
▁picking	-7012
▁battling	-7013
▁explains	-7014
▁phillips	-7015
▁priority	-7016
▁strategy	-7017
▁selection	-7018
▁manslaughter	-7019
ups	-7020
xual	-7021
▁unw	-7022
rance	-7023
▁deny	-7024
▁explo	-7025
▁frame	-7026
working	-7027
▁checks	-7028
▁compar	-7029
▁crowds	-7030
▁muscle	-7031
▁tennes	-7032
otherapy	-7033
▁cabinet	-7034
▁purchase	-7035
▁defendant	-7036
▁depression	-7037
▁philadelphia	-7038
▁sg	-7039
▁gov	-7040
berry	-7041
▁gest	-7042
▁sequ	-7043
▁emily	-7044
▁shout	-7045
minster	-7046
▁carter	-7047
▁hearts	-7048
▁rounds	-7049
▁talked	-7050
▁advance	-7051
▁speaker	-7052
▁appointed	-7053
▁aggravated	-7054
▁connecticut	-7055
▁understanding	-7056
inos	-7057
irty	-7058
▁avo	-7059
▁bug	-7060
▁libr	-7061
ucking	-7062
▁entit	-7063
▁rehab	-7064
▁horror	-7065
▁indeed	-7066
▁ingred	-7067
▁vision	-7068
▁monitor	-7069
▁predict	-7070
▁maryland	-7071
▁destination	-7072
▁inappropriate	-7073
uay	-7074
nett	-7075
phed	-7076
rets	-7077
▁ast	-7078
▁sib	-7079
graph	-7080
▁anch	-7081
▁bord	-7082
▁tips	-7083
▁blond	-7084
▁halft	-7085
▁leban	-7086
▁loyal	-7087
▁venez	-7088
▁barely	-7089
▁lionel	-7090
▁rachel	-7091
▁somers	-7092
▁stroke	-7093
▁approxim	-7094
▁kidnapped	-7095
▁semifinal	-7096
▁respective	-7097
▁youngsters	-7098
jan	-7099
lif	-7100
apes	-7101
apse	-7102
gans	-7103
umph	-7104
eness	-7105
urned	-7106
▁butt	-7107
▁gill	-7108
acking	-7109
▁bombs	-7110
▁chosen	-7111
▁parked	-7112
▁applied	-7113
▁stewart	-7114
▁triumph	-7115
▁consumer	-7116
▁overseas	-7117
▁apologised	-7118
▁controlled	-7119
▁sentencing	-7120
▁restaurants	-7121
▁representative	-7122
loo	-7123
nic	-7124
▁kg	-7125
raid	-7126
▁dal	-7127
▁eggs	-7128
▁joan	-7129
▁thin	-7130
▁wolf	-7131
▁accom	-7132
▁disgr	-7133
▁reign	-7134
▁howard	-7135
▁marked	-7136
▁closely	-7137
▁collins	-7138
▁demanding	-7139
▁settlement	-7140
▁accidentally	-7141
▁conservation	-7142
▁successfully	-7143
chi	-7144
emed	-7145
rene	-7146
▁bun	-7147
▁cia	-7148
▁err	-7149
▁tig	-7150
style	-7151
▁djok	-7152
▁robb	-7153
▁concl	-7154
▁opens	-7155
▁locals	-7156
▁manage	-7157
▁designs	-7158
▁demanded	-7159
▁venezuel	-7160
▁cleveland	-7161
▁chancellor	-7162
▁commitment	-7163
▁ye	-7164
bian	-7165
heim	-7166
ivan	-7167
▁hob	-7168
▁anti	-7169
▁guid	-7170
▁grave	-7171
ointing	-7172
▁actors	-7173
▁alaska	-7174
▁assemb	-7175
▁crying	-7176
▁distur	-7177
▁shadow	-7178
▁dragged	-7179
▁licence	-7180
▁regions	-7181
▁spectac	-7182
▁turkish	-7183
▁creative	-7184
▁exciting	-7185
▁portugal	-7186
▁throwing	-7187
▁youngest	-7188
▁recording	-7189
▁transcript	-7190
▁headquarters	-7191
no	-7192
▁milk	-7193
▁odds	-7194
▁pets	-7195
▁sams	-7196
▁urug	-7197
usting	-7198
▁balls	-7199
▁moore	-7200
▁oklah	-7201
▁stamp	-7202
▁alexis	-7203
▁accompl	-7204
▁drawing	-7205
▁intense	-7206
▁airports	-7207
▁athletes	-7208
▁controls	-7209
▁entirely	-7210
▁holidays	-7211
▁protected	-7212
▁surrounded	-7213
▁replacement	-7214
▁extraordinary	-7215
how	-7216
ras	-7217
oked	-7218
▁bub	-7219
▁gem	-7220
▁ages	-7221
▁dawn	-7222
▁exit	-7223
▁glas	-7224
▁judg	-7225
▁oreg	-7226
▁stam	-7227
▁synd	-7228
tering	-7229
▁deals	-7230
▁nigel	-7231
▁contem	-7232
▁motion	-7233
▁ordeal	-7234
▁founded	-7235
▁license	-7236
▁fernando	-7237
▁halftime	-7238
▁volunteers	-7239
▁accusations	-7240
een	-7241
free	-7242
hour	-7243
ighed	-7244
▁ramp	-7245
▁globe	-7246
▁mixed	-7247
itarian	-7248
▁abbott	-7249
▁forgot	-7250
▁formed	-7251
▁heroin	-7252
▁lambert	-7253
▁vatican	-7254
▁advanced	-7255
▁vacation	-7256
▁tennessee	-7257
▁monitoring	-7258
▁corporation	-7259
▁consequences	-7260
bag	-7261
▁cz	-7262
issa	-7263
inlaw	-7264
▁gonz	-7265
▁blair	-7266
▁facts	-7267
▁foods	-7268
▁pound	-7269
▁mirror	-7270
▁unfair	-7271
breaking	-7272
children	-7273
tershire	-7274
▁package	-7275
▁harrison	-7276
▁northwest	-7277
▁regarding	-7278
▁sanctions	-7279
gow	-7280
vens	-7281
▁amp	-7282
▁lip	-7283
water	-7284
▁fasc	-7285
▁hook	-7286
▁twin	-7287
mitted	-7288
▁fault	-7289
▁magic	-7290
▁noise	-7291
▁afraid	-7292
▁minnes	-7293
▁oregon	-7294
▁gunners	-7295
▁seventh	-7296
▁lawrence	-7297
▁interviewed	-7298
hd	-7299
amin	-7300
▁gor	-7301
▁lut	-7302
aware	-7303
lando	-7304
▁toys	-7305
▁barry	-7306
▁const	-7307
respond	-7308
▁donald	-7309
▁faster	-7310
▁lincol	-7311
▁nether	-7312
▁qualif	-7313
▁classes	-7314
▁lancash	-7315
▁describe	-7316
▁killings	-7317
▁occasions	-7318
bar	-7319
bow	-7320
ika	-7321
uls	-7322
etch	-7323
▁qat	-7324
▁sgt	-7325
attoo	-7326
▁cake	-7327
▁roma	-7328
▁arena	-7329
▁julie	-7330
▁lions	-7331
▁cheese	-7332
▁gunman	-7333
▁damages	-7334
▁furious	-7335
▁djokovic	-7336
▁outbreak	-7337
▁expecting	-7338
▁liverpools	-7339
enz	-7340
kas	-7341
▁cd	-7342
agan	-7343
greg	-7344
▁tob	-7345
ropol	-7346
▁lisa	-7347
▁alarm	-7348
▁chile	-7349
▁drown	-7350
▁castro	-7351
▁prohib	-7352
▁waited	-7353
▁promise	-7354
▁heritage	-7355
▁husbands	-7356
▁programs	-7357
▁admitting	-7358
▁correspond	-7359
▁medication	-7360
▁regulations	-7361
▁approximately	-7362
▁relationships	-7363
hy	-7364
bab	-7365
paid	-7366
uild	-7367
▁mud	-7368
▁keys	-7369
▁peak	-7370
▁tail	-7371
ingers	-7372
▁clark	-7373
▁aguero	-7374
▁chiefs	-7375
▁rafael	-7376
▁sophie	-7377
▁tattoo	-7378
▁wright	-7379
▁blocked	-7380
▁burnley	-7381
▁festive	-7382
▁lincoln	-7383
▁payments	-7384
▁execution	-7385
▁positions	-7386
▁personality	-7387
▁westminster	-7388
oys	-7389
▁gi	-7390
mann	-7391
▁cul	-7392
▁dean	-7393
▁fixt	-7394
▁gent	-7395
▁kane	-7396
▁shaw	-7397
▁vlad	-7398
itched	-7399
▁blank	-7400
▁devon	-7401
▁avenue	-7402
▁flames	-7403
▁landsc	-7404
▁slowly	-7405
▁appeals	-7406
▁demands	-7407
▁returns	-7408
▁graduate	-7409
▁therefore	-7410
▁traveling	-7411
▁witnessed	-7412
▁industrial	-7413
▁opportunities	-7414
iao	-7415
agne	-7416
onth	-7417
▁rome	-7418
heroft	-7419
▁boats	-7420
▁cloud	-7421
▁vowed	-7422
▁desire	-7423
▁infant	-7424
▁oldest	-7425
▁parker	-7426
▁sector	-7427
▁summit	-7428
▁samsung	-7429
▁weighed	-7430
▁solution	-7431
▁withdraw	-7432
▁defensive	-7433
▁substitute	-7434
▁transferred	-7435
ali	-7436
aug	-7437
bast	-7438
oenix	-7439
▁hood	-7440
▁maur	-7441
▁mood	-7442
▁stal	-7443
uments	-7444
▁ideas	-7445
▁skull	-7446
▁britons	-7447
▁earthqu	-7448
▁markets	-7449
▁playoff	-7450
▁anywhere	-7451
▁attacker	-7452
▁requires	-7453
▁materials	-7454
▁offenders	-7455
▁typically	-7456
▁queensland	-7457
fts	-7458
lus	-7459
net	-7460
gent	-7461
reen	-7462
▁dyn	-7463
▁por	-7464
▁brun	-7465
▁rice	-7466
itable	-7467
▁ferdin	-7468
▁liquid	-7469
▁loving	-7470
▁lowest	-7471
▁monaco	-7472
▁edition	-7473
▁phoenix	-7474
▁slammed	-7475
▁arsenals	-7476
▁oklahoma	-7477
▁stronger	-7478
▁treating	-7479
▁condemned	-7480
▁australias	-7481
▁discussion	-7482
▁lancashire	-7483
aga	-7484
ship	-7485
step	-7486
▁wool	-7487
▁jesus	-7488
▁actual	-7489
▁integr	-7490
▁packed	-7491
▁strang	-7492
▁tribun	-7493
▁existing	-7494
▁resigned	-7495
▁confessed	-7496
▁interests	-7497
▁preseason	-7498
▁retirement	-7499
▁interesting	-7500
▁unconscious	-7501
▁underground	-7502
thy	-7503
asha	-7504
onom	-7505
vant	-7506
▁vig	-7507
▁cape	-7508
▁viet	-7509
▁cheap	-7510
▁entry	-7511
▁rocks	-7512
▁subst	-7513
▁breach	-7514
▁breaks	-7515
▁formal	-7516
▁testim	-7517
▁emirates	-7518
▁migrants	-7519
▁networks	-7520
▁minnesota	-7521
▁technical	-7522
▁guidelines	-7523
▁businessman	-7524
bane	-7525
ello	-7526
pass	-7527
▁nba	-7528
▁oak	-7529
chair	-7530
cling	-7531
▁alab	-7532
▁tape	-7533
enging	-7534
▁cheer	-7535
▁cream	-7536
▁elite	-7537
▁notor	-7538
▁pages	-7539
▁walks	-7540
▁eighth	-7541
▁forens	-7542
▁keeper	-7543
▁singap	-7544
▁surrey	-7545
▁crossed	-7546
▁forever	-7547
▁matters	-7548
▁singing	-7549
▁touched	-7550
▁wealthy	-7551
▁burglary	-7552
identified	-7553
▁underwent	-7554
▁employment	-7555
▁netherlands	-7556
▁trafficking	-7557
zh	-7558
alo	-7559
▁bm	-7560
beat	-7561
imir	-7562
▁eag	-7563
▁mes	-7564
▁mug	-7565
bound	-7566
▁brew	-7567
▁calc	-7568
▁cope	-7569
▁inch	-7570
▁prec	-7571
▁katie	-7572
▁kerry	-7573
▁lucas	-7574
▁pride	-7575
▁types	-7576
▁carlos	-7577
▁persie	-7578
▁centers	-7579
▁dealing	-7580
▁glasgow	-7581
▁objects	-7582
▁purpose	-7583
▁announce	-7584
▁refusing	-7585
▁starring	-7586
▁convinced	-7587
▁finishing	-7588
▁challenging	-7589
▁effectively	-7590
ecca	-7591
ilst	-7592
look	-7593
oded	-7594
▁lyn	-7595
▁tel	-7596
▁apps	-7597
▁blaze	-7598
▁boots	-7599
▁urban	-7600
▁handle	-7601
▁runner	-7602
▁taught	-7603
▁anybody	-7604
▁delayed	-7605
▁strateg	-7606
▁ferdinand	-7607
▁encouraged	-7608
▁pronounced	-7609
▁scientific	-7610
▁twoyearold	-7611
▁experiences	-7612
▁inspiration	-7613
akh	-7614
ugh	-7615
▁oz	-7616
▁lod	-7617
▁tat	-7618
itors	-7619
▁reck	-7620
▁sits	-7621
▁symp	-7622
▁zero	-7623
▁enorm	-7624
▁waves	-7625
profile	-7626
▁citing	-7627
▁conced	-7628
▁racial	-7629
▁suburb	-7630
▁warren	-7631
▁circuit	-7632
▁concept	-7633
▁requests	-7634
▁estimates	-7635
▁mountains	-7636
▁kidnapping	-7637
ema	-7638
lete	-7639
▁gut	-7640
▁vel	-7641
antha	-7642
▁audi	-7643
▁grim	-7644
▁kirk	-7645
▁babys	-7646
▁error	-7647
▁keeps	-7648
▁lifes	-7649
▁fundra	-7650
▁rolled	-7651
▁signal	-7652
▁sounds	-7653
▁ferrari	-7654
▁lessons	-7655
▁secured	-7656
▁somalia	-7657
▁laughing	-7658
▁longtime	-7659
▁supplies	-7660
▁telegraph	-7661
▁describing	-7662
▁electronic	-7663
▁qualifying	-7664
▁spectacular	-7665
itis	-7666
olds	-7667
uous	-7668
▁elim	-7669
▁phen	-7670
▁tong	-7671
▁wire	-7672
abetes	-7673
▁bears	-7674
▁label	-7675
▁tunis	-7676
▁dumped	-7677
▁holder	-7678
▁jurors	-7679
▁kilome	-7680
▁selfie	-7681
heroftwo	-7682
▁ignored	-7683
▁microso	-7684
▁punched	-7685
▁uruguay	-7686
▁cultural	-7687
▁familiar	-7688
▁prospect	-7689
▁reception	-7690
▁testified	-7691
▁accompanied	-7692
▁representing	-7693
▁restrictions	-7694
▁unidentified	-7695
aro	-7696
ito	-7697
▁jaw	-7698
▁tut	-7699
▁wol	-7700
▁asks	-7701
▁dort	-7702
▁holy	-7703
▁ivan	-7704
▁maid	-7705
▁reop	-7706
▁tens	-7707
ported	-7708
strong	-7709
▁accur	-7710
▁aside	-7711
▁dates	-7712
▁flown	-7713
▁keith	-7714
▁recre	-7715
▁autops	-7716
▁butter	-7717
▁jacket	-7718
▁unlike	-7719
▁elected	-7720
▁dortmund	-7721
▁resulted	-7722
▁headlines	-7723
▁prevention	-7724
▁represents	-7725
▁disappointing	-7726
aya	-7727
bul	-7728
fel	-7729
▁gp	-7730
case	-7731
keep	-7732
load	-7733
▁anx	-7734
▁jav	-7735
▁uef	-7736
cover	-7737
outed	-7738
▁arts	-7739
▁dece	-7740
▁hans	-7741
pected	-7742
▁delhi	-7743
▁moyes	-7744
▁prote	-7745
▁shame	-7746
▁votes	-7747
issions	-7748
▁hammer	-7749
american	-7750
▁bottles	-7751
▁citizen	-7752
▁flowers	-7753
▁snapped	-7754
▁succeed	-7755
▁imprison	-7756
▁portrait	-7757
▁smartphone	-7758
▁appointment	-7759
▁devastating	-7760
oren	-7761
wife	-7762
▁hip	-7763
▁lon	-7764
ullah	-7765
▁jets	-7766
▁tsar	-7767
▁grade	-7768
▁holes	-7769
▁reven	-7770
▁usual	-7771
▁buyers	-7772
▁clarke	-7773
▁deemed	-7774
▁divers	-7775
▁theory	-7776
▁absence	-7777
▁radical	-7778
▁revenue	-7779
▁wrapped	-7780
▁civilian	-7781
▁comedian	-7782
▁opponent	-7783
▁presents	-7784
▁studying	-7785
▁traveled	-7786
di	-7787
▁ew	-7788
▁rd	-7789
onto	-7790
▁raw	-7791
andah	-7792
caster	-7793
▁alter	-7794
▁colon	-7795
▁flash	-7796
attered	-7797
▁extend	-7798
▁persons	-7799
▁bradford	-7800
▁entering	-7801
▁metropol	-7802
▁samantha	-7803
▁weekends	-7804
▁welcomed	-7805
▁champagne	-7806
▁computers	-7807
▁detention	-7808
▁sensitive	-7809
▁singapore	-7810
▁highprofile	-7811
▁representatives	-7812
olo	-7813
▁mm	-7814
imed	-7815
rich	-7816
▁cycl	-7817
▁valu	-7818
▁whos	-7819
gation	-7820
▁escal	-7821
▁shift	-7822
▁taxes	-7823
▁teach	-7824
▁carbon	-7825
▁finals	-7826
▁hannah	-7827
▁hawaii	-7828
▁subway	-7829
▁viewed	-7830
▁whilst	-7831
▁profits	-7832
▁brisbane	-7833
▁chelseas	-7834
▁cornwall	-7835
▁margaret	-7836
▁reserved	-7837
▁substant	-7838
▁principal	-7839
▁investigations	-7840
ouch	-7841
uits	-7842
icing	-7843
uting	-7844
▁furn	-7845
▁palm	-7846
active	-7847
wealth	-7848
▁climb	-7849
▁guess	-7850
▁innov	-7851
▁pacqu	-7852
ivalent	-7853
winning	-7854
▁cousin	-7855
▁extrad	-7856
▁courage	-7857
▁inspect	-7858
▁offices	-7859
▁directed	-7860
▁engineer	-7861
▁selected	-7862
▁architect	-7863
▁louisiana	-7864
▁satellite	-7865
▁survivors	-7866
▁exhibition	-7867
▁personally	-7868
▁suggesting	-7869
▁suspension	-7870
▁unexpected	-7871
li	-7872
zer	-7873
aman	-7874
cond	-7875
hett	-7876
▁cad	-7877
▁duo	-7878
▁gir	-7879
guard	-7880
▁boot	-7881
▁illeg	-7882
▁pardew	-7883
▁saints	-7884
▁valenc	-7885
▁advised	-7886
▁mississ	-7887
▁painted	-7888
▁collapse	-7889
▁confront	-7890
▁detailed	-7891
▁managing	-7892
▁tensions	-7893
▁discussed	-7894
▁embarrassing	-7895
▁photographed	-7896
hr	-7897
abe	-7898
ikh	-7899
ghed	-7900
okes	-7901
ooth	-7902
seys	-7903
▁kas	-7904
▁aims	-7905
▁cafe	-7906
▁cuba	-7907
▁forb	-7908
▁obes	-7909
▁stor	-7910
ateful	-7911
▁falca	-7912
▁plain	-7913
▁roles	-7914
▁franch	-7915
▁zimmer	-7916
▁astrona	-7917
▁downing	-7918
▁jumping	-7919
▁schedule	-7920
▁telephone	-7921
vi	-7922
tar	-7923
ader	-7924
rete	-7925
eller	-7926
▁arth	-7927
▁sara	-7928
isation	-7929
▁dreams	-7930
▁gallery	-7931
▁roberto	-7932
▁colombia	-7933
▁covering	-7934
▁opposite	-7935
▁stafford	-7936
▁stamford	-7937
▁equivalent	-7938
▁experiment	-7939
▁liz	-7940
▁ord	-7941
isons	-7942
uster	-7943
verty	-7944
▁boun	-7945
▁wils	-7946
rating	-7947
▁boxes	-7948
▁jeans	-7949
▁prest	-7950
▁rings	-7951
▁toxic	-7952
▁bitter	-7953
▁denver	-7954
▁fitted	-7955
▁heroes	-7956
▁parade	-7957
▁poland	-7958
▁repair	-7959
▁android	-7960
▁stretch	-7961
▁vincent	-7962
▁entitled	-7963
▁machines	-7964
▁survival	-7965
▁technique	-7966
▁mississipp	-7967
▁commonwealth	-7968
ctic	-7969
otyp	-7970
▁hey	-7971
▁iow	-7972
▁sue	-7973
rical	-7974
▁chan	-7975
▁tent	-7976
▁tren	-7977
estone	-7978
▁bones	-7979
▁races	-7980
▁subur	-7981
borough	-7982
▁fright	-7983
▁greece	-7984
▁nathan	-7985
▁nurses	-7986
▁tipped	-7987
▁murders	-7988
▁painful	-7989
▁pending	-7990
▁poverty	-7991
▁romantic	-7992
▁testimony	-7993
▁popularity	-7994
▁remarkable	-7995
▁outstanding	-7996
▁acknowledged	-7997
▁humanitarian	-7998
arms	-7999
hall	-8000
lett	-8001
▁amy	-8002
▁voc	-8003
stein	-8004
▁czech	-8005
▁fixed	-8006
▁print	-8007
▁smell	-8008
▁yacht	-8009
▁delays	-8010
▁felony	-8011
▁indict	-8012
▁leaked	-8013
▁manner	-8014
▁opener	-8015
▁sebast	-8016
▁shield	-8017
▁tigers	-8018
▁tsarna	-8019
▁barbara	-8020
▁library	-8021
▁obesity	-8022
▁achieved	-8023
▁contrast	-8024
▁uploaded	-8025
▁blackpool	-8026
▁penalties	-8027
▁southeast	-8028
▁underwear	-8029
▁transition	-8030
▁mississippi	-8031
kh	-8032
bod	-8033
eta	-8034
iac	-8035
nie	-8036
yer	-8037
onda	-8038
orer	-8039
▁han	-8040
three	-8041
uters	-8042
▁tool	-8043
▁bread	-8044
▁warns	-8045
▁wrest	-8046
ecutive	-8047
rington	-8048
▁autumn	-8049
▁bacter	-8050
▁autopsy	-8051
▁forcing	-8052
▁kingdom	-8053
▁muslims	-8054
▁osborne	-8055
▁relaxed	-8056
▁russias	-8057
▁anonymous	-8058
▁proceedings	-8059
des	-8060
crib	-8061
hand	-8062
▁lop	-8063
▁dale	-8064
▁shan	-8065
▁berry	-8066
▁blues	-8067
▁brace	-8068
▁lanka	-8069
▁perez	-8070
▁silva	-8071
▁sharap	-8072
ologists	-8073
▁burning	-8074
▁carroll	-8075
▁hopeful	-8076
▁indiana	-8077
▁payment	-8078
▁concrete	-8079
▁dressing	-8080
▁malaysia	-8081
▁displayed	-8082
▁retailers	-8083
▁constantly	-8084
▁philippines	-8085
▁specifically	-8086
oor	-8087
cont	-8088
etta	-8089
▁ark	-8090
▁fda	-8091
▁nik	-8092
▁sou	-8093
iller	-8094
▁bite	-8095
▁debr	-8096
▁nato	-8097
▁nerv	-8098
lessly	-8099
ouring	-8100
rolled	-8101
▁spenc	-8102
▁tesco	-8103
▁extent	-8104
▁oliver	-8105
▁update	-8106
▁distress	-8107
▁exposure	-8108
▁highlight	-8109
▁motorists	-8110
▁pellegrini	-8111
▁convictions	-8112
▁competitions	-8113
awa	-8114
isy	-8115
pan	-8116
acre	-8117
illo	-8118
▁joh	-8119
▁poc	-8120
ouces	-8121
▁bian	-8122
▁bout	-8123
▁ease	-8124
▁beard	-8125
▁euros	-8126
▁indic	-8127
▁nickn	-8128
▁reass	-8129
▁recru	-8130
▁relie	-8131
▁herald	-8132
▁tweets	-8133
▁confron	-8134
▁donated	-8135
▁glouces	-8136
▁therapy	-8137
▁toddler	-8138
▁whistle	-8139
▁hollande	-8140
▁meetings	-8141
▁somerset	-8142
▁competing	-8143
▁investors	-8144
▁requested	-8145
▁importance	-8146
▁represented	-8147
po	-8148
ici	-8149
igg	-8150
wed	-8151
▁ax	-8152
aria	-8153
▁spy	-8154
pless	-8155
▁bish	-8156
▁dick	-8157
▁karl	-8158
▁spac	-8159
▁thai	-8160
▁tiss	-8161
atched	-8162
▁congr	-8163
▁groom	-8164
▁lover	-8165
▁outdo	-8166
▁swift	-8167
▁debris	-8168
▁nicole	-8169
▁runway	-8170
▁costume	-8171
▁stagger	-8172
▁trainer	-8173
▁unnamed	-8174
▁activist	-8175
▁analysts	-8176
▁attitude	-8177
▁unaccept	-8178
▁northeast	-8179
▁predicted	-8180
▁targeting	-8181
▁earthquake	-8182
▁interviews	-8183
▁organizations	-8184
▁significantly	-8185
nan	-8186
▁ku	-8187
main	-8188
play	-8189
icals	-8190
▁ninth	-8191
▁falcao	-8192
▁gadget	-8193
▁counsel	-8194
▁dominic	-8195
▁newborn	-8196
▁samples	-8197
▁senator	-8198
▁chambers	-8199
▁memories	-8200
▁tribunal	-8201
▁armstrong	-8202
▁departure	-8203
▁seemingly	-8204
▁sentences	-8205
▁substance	-8206
▁healthcare	-8207
▁undergoing	-8208
aux	-8209
aved	-8210
▁pip	-8211
▁tai	-8212
andra	-8213
▁mete	-8214
▁mick	-8215
▁stim	-8216
▁reads	-8217
▁trips	-8218
▁ethnic	-8219
▁poster	-8220
▁bucking	-8221
▁doubled	-8222
▁missile	-8223
▁settled	-8224
▁suffers	-8225
▁trading	-8226
▁comeback	-8227
▁diabetes	-8228
▁lifetime	-8229
▁passport	-8230
▁valencia	-8231
▁generally	-8232
sk	-8233
tel	-8234
▁zh	-8235
alez	-8236
eler	-8237
inis	-8238
itar	-8239
onso	-8240
▁era	-8241
▁pel	-8242
iture	-8243
▁remo	-8244
kinson	-8245
umping	-8246
▁fence	-8247
▁krist	-8248
osexual	-8249
▁europa	-8250
▁hailed	-8251
▁regret	-8252
▁trials	-8253
cription	-8254
▁genetic	-8255
▁letting	-8256
▁snowden	-8257
▁stunned	-8258
▁torture	-8259
▁transpl	-8260
▁visible	-8261
▁bullying	-8262
▁forensic	-8263
▁handling	-8264
▁homicide	-8265
▁sessions	-8266
▁vladimir	-8267
▁improving	-8268
▁separated	-8269
▁explosives	-8270
▁ae	-8271
▁va	-8272
keys	-8273
rows	-8274
upid	-8275
▁cin	-8276
▁lag	-8277
▁dish	-8278
▁lapt	-8279
apping	-8280
▁begun	-8281
▁ideal	-8282
▁toler	-8283
unction	-8284
▁fields	-8285
▁symbol	-8286
▁beloved	-8287
▁clashes	-8288
▁councils	-8289
▁democrat	-8290
▁homeland	-8291
▁addiction	-8292
▁addressed	-8293
▁triggered	-8294
icy	-8295
▁cm	-8296
▁zo	-8297
anor	-8298
izza	-8299
▁nev	-8300
▁ske	-8301
arted	-8302
▁foul	-8303
▁frag	-8304
▁ruth	-8305
▁scam	-8306
urally	-8307
▁admit	-8308
▁corps	-8309
▁units	-8310
▁entrep	-8311
▁lovely	-8312
▁appreci	-8313
▁graphic	-8314
▁rebecca	-8315
▁pacquiao	-8316
▁tsarnaev	-8317
▁warnings	-8318
▁launching	-8319
▁murdering	-8320
▁kilometers	-8321
dam	-8322
▁aj	-8323
▁il	-8324
ione	-8325
mare	-8326
orse	-8327
ussia	-8328
▁outp	-8329
▁pist	-8330
▁terr	-8331
▁uefa	-8332
igible	-8333
itated	-8334
riages	-8335
▁floyd	-8336
▁ghost	-8337
▁pants	-8338
▁recip	-8339
oration	-8340
vention	-8341
▁assass	-8342
▁bolton	-8343
▁legacy	-8344
▁meters	-8345
▁parole	-8346
▁quoted	-8347
▁random	-8348
▁sweden	-8349
▁tories	-8350
▁alabama	-8351
▁kicking	-8352
▁reserve	-8353
▁simpson	-8354
▁approval	-8355
▁bleeding	-8356
▁climbing	-8357
▁kentucky	-8358
▁syndrome	-8359
▁sturridge	-8360
▁buckingham	-8361
▁celebrations	-8362
▁hospitalized	-8363
▁unacceptable	-8364
▁unemployment	-8365
zo	-8366
▁bn	-8367
abul	-8368
▁ceme	-8369
▁keny	-8370
▁scul	-8371
essing	-8372
▁craft	-8373
▁serie	-8374
▁wages	-8375
▁blonde	-8376
▁mainly	-8377
▁longest	-8378
▁columbia	-8379
▁psychiat	-8380
▁ultimate	-8381
▁entreprene	-8382
erg	-8383
zes	-8384
leep	-8385
walk	-8386
▁uks	-8387
oning	-8388
▁belt	-8389
▁dial	-8390
▁emph	-8391
▁genu	-8392
▁mate	-8393
▁moss	-8394
▁fines	-8395
▁gover	-8396
▁intim	-8397
▁pharm	-8398
▁scrap	-8399
▁deport	-8400
▁diplom	-8401
▁statue	-8402
▁stones	-8403
▁allardy	-8404
▁expects	-8405
▁reforms	-8406
▁theatre	-8407
▁enormous	-8408
▁isolated	-8409
▁phenomen	-8410
▁speeding	-8411
▁talented	-8412
▁indicated	-8413
▁referring	-8414
▁metropolitan	-8415
▁ky	-8416
oria	-8417
ulum	-8418
▁enh	-8419
▁suv	-8420
owski	-8421
▁kath	-8422
▁mini	-8423
uctive	-8424
▁honey	-8425
▁theme	-8426
▁youll	-8427
▁albert	-8428
▁header	-8429
▁ranked	-8430
▁spains	-8431
▁transp	-8432
▁hostage	-8433
▁nervous	-8434
▁opposed	-8435
▁orlando	-8436
▁studied	-8437
▁undergo	-8438
▁defeated	-8439
▁pentagon	-8440
▁reunited	-8441
▁evacuated	-8442
▁proposals	-8443
▁attractive	-8444
▁diplomatic	-8445
▁initiative	-8446
▁questioning	-8447
gi	-8448
mun	-8449
rera	-8450
▁hub	-8451
▁pga	-8452
round	-8453
▁drum	-8454
▁elev	-8455
▁fool	-8456
▁iowa	-8457
▁gifts	-8458
▁repeat	-8459
▁colours	-8460
▁obvious	-8461
▁toronto	-8462
▁walmart	-8463
▁feedback	-8464
▁strongly	-8465
▁troubled	-8466
▁frustrated	-8467
▁engineering	-8468
▁publication	-8469
fc	-8470
aba	-8471
bean	-8472
list	-8473
ooks	-8474
ught	-8475
▁cot	-8476
▁tub	-8477
agher	-8478
▁flav	-8479
▁soul	-8480
▁webb	-8481
▁amend	-8482
▁argue	-8483
▁cargo	-8484
▁spani	-8485
bedroom	-8486
▁adrian	-8487
▁asleep	-8488
▁bloody	-8489
▁humili	-8490
▁physic	-8491
▁pursue	-8492
▁backing	-8493
▁bernard	-8494
▁dresses	-8495
▁farmers	-8496
▁roughly	-8497
▁diseases	-8498
▁grateful	-8499
▁involves	-8500
▁promises	-8501
▁argentine	-8502
▁perfectly	-8503
▁engagement	-8504
▁consecutive	-8505
och	-8506
berl	-8507
▁hut	-8508
▁len	-8509
▁lud	-8510
▁pie	-8511
riers	-8512
▁bour	-8513
▁cert	-8514
▁chen	-8515
▁nest	-8516
▁toug	-8517
▁wage	-8518
▁persu	-8519
▁snake	-8520
▁anticip	-8521
▁concert	-8522
▁musical	-8523
▁silence	-8524
▁spencer	-8525
▁caroline	-8526
▁realized	-8527
▁thatcher	-8528
▁wilshere	-8529
▁apologise	-8530
▁listening	-8531
▁purchased	-8532
▁recommended	-8533
▁residential	-8534
aud	-8535
mel	-8536
ori	-8537
beck	-8538
stri	-8539
▁hyd	-8540
allow	-8541
▁fury	-8542
▁nazi	-8543
▁rang	-8544
▁sull	-8545
▁trio	-8546
minute	-8547
▁breat	-8548
▁loose	-8549
▁obser	-8550
▁tired	-8551
▁claire	-8552
▁curric	-8553
▁gentle	-8554
▁meteor	-8555
▁norway	-8556
▁powell	-8557
ulations	-8558
▁beaches	-8559
▁typical	-8560
▁awaiting	-8561
▁executed	-8562
▁indecent	-8563
▁religion	-8564
▁valuable	-8565
▁websites	-8566
▁terrified	-8567
▁uncovered	-8568
▁ridiculous	-8569
gie	-8570
iah	-8571
ora	-8572
mont	-8573
oken	-8574
ylum	-8575
ockey	-8576
▁clay	-8577
▁lucy	-8578
▁pure	-8579
▁shoe	-8580
▁vick	-8581
▁croat	-8582
▁helen	-8583
▁lopez	-8584
▁shake	-8585
▁wigan	-8586
▁column	-8587
▁duncan	-8588
▁harder	-8589
▁prelim	-8590
▁racism	-8591
▁airways	-8592
▁belgian	-8593
▁carries	-8594
▁finance	-8595
▁fingers	-8596
▁slipped	-8597
▁starred	-8598
▁swedish	-8599
▁wreckage	-8600
▁microsoft	-8601
▁organised	-8602
▁reference	-8603
▁sharapova	-8604
▁assaulting	-8605
▁criticized	-8606
▁treatments	-8607
▁australians	-8608
▁pc	-8609
dles	-8610
gage	-8611
heem	-8612
nity	-8613
▁bil	-8614
▁oxy	-8615
▁rsp	-8616
▁yog	-8617
found	-8618
umper	-8619
▁memo	-8620
▁seas	-8621
▁antib	-8622
▁camps	-8623
▁liked	-8624
▁overd	-8625
▁pizza	-8626
▁swing	-8627
▁toure	-8628
▁uncom	-8629
▁arrang	-8630
▁asylum	-8631
▁louise	-8632
▁struct	-8633
▁wooden	-8634
▁congrat	-8635
▁lottery	-8636
▁outcome	-8637
▁realise	-8638
▁tuesdays	-8639
▁appealing	-8640
▁conscious	-8641
▁increases	-8642
▁jewellery	-8643
▁prominent	-8644
▁somewhere	-8645
▁executives	-8646
▁highlights	-8647
▁sportsmail	-8648
▁respectively	-8649
appy	-8650
club	-8651
inea	-8652
▁gps	-8653
▁hog	-8654
▁tap	-8655
apers	-8656
▁bash	-8657
▁cott	-8658
▁soil	-8659
ancing	-8660
iscons	-8661
▁dolph	-8662
▁greek	-8663
▁kenya	-8664
▁lorry	-8665
▁suing	-8666
▁wings	-8667
uations	-8668
▁arabia	-8669
▁boeing	-8670
▁detain	-8671
▁valent	-8672
▁cooking	-8673
▁decline	-8674
▁install	-8675
▁prayers	-8676
▁sustain	-8677
▁watches	-8678
▁collabor	-8679
▁elephant	-8680
▁gonzalez	-8681
▁militant	-8682
▁mistakes	-8683
▁subjects	-8684
▁disciplin	-8685
▁gathering	-8686
▁departments	-8687
ses	-8688
tra	-8689
▁unh	-8690
▁yan	-8691
iable	-8692
rehens	-8693
▁cockt	-8694
▁handc	-8695
▁rebel	-8696
▁spear	-8697
▁steal	-8698
▁sweep	-8699
▁angela	-8700
▁explan	-8701
▁holmes	-8702
▁nelson	-8703
▁praise	-8704
▁resemb	-8705
▁smiles	-8706
▁values	-8707
▁nursing	-8708
▁clinical	-8709
▁deployed	-8710
▁feelings	-8711
▁siblings	-8712
▁stabbing	-8713
▁campaigns	-8714
▁donations	-8715
▁challenged	-8716
▁defendants	-8717
▁disturbing	-8718
▁politician	-8719
▁campaigners	-8720
vy	-8721
zs	-8722
hams	-8723
ipper	-8724
▁hind	-8725
▁carib	-8726
▁clock	-8727
▁legit	-8728
▁punch	-8729
▁robot	-8730
▁stops	-8731
▁boasts	-8732
▁speaks	-8733
isconsin	-8734
▁fastest	-8735
▁entrance	-8736
▁motherof	-8737
▁ordinary	-8738
▁stressed	-8739
▁essential	-8740
▁lawmakers	-8741
▁revealing	-8742
▁frequently	-8743
▁overweight	-8744
▁firstdegree	-8745
▁parliamentary	-8746
anne	-8747
napp	-8748
▁slo	-8749
ateur	-8750
icial	-8751
orset	-8752
▁dian	-8753
▁redk	-8754
▁joked	-8755
▁karen	-8756
▁squir	-8757
▁thigh	-8758
▁alonso	-8759
▁medals	-8760
▁sealed	-8761
▁stupid	-8762
▁superb	-8763
▁tablet	-8764
▁temple	-8765
▁wheels	-8766
▁smiling	-8767
▁tablets	-8768
▁athletic	-8769
▁shouting	-8770
▁contracts	-8771
▁intensive	-8772
▁curriculum	-8773
▁physically	-8774
erk	-8775
esh	-8776
hop	-8777
inh	-8778
▁tm	-8779
bits	-8780
omed	-8781
▁cah	-8782
▁jol	-8783
▁ori	-8784
▁coat	-8785
▁cops	-8786
▁rans	-8787
▁sued	-8788
▁trem	-8789
▁breed	-8790
▁mills	-8791
▁obese	-8792
▁polls	-8793
▁puppy	-8794
▁steel	-8795
▁covers	-8796
▁harvey	-8797
▁polish	-8798
▁rarely	-8799
▁somali	-8800
▁pochett	-8801
▁proport	-8802
▁qualify	-8803
▁tornado	-8804
▁brighton	-8805
▁damaging	-8806
▁dropping	-8807
▁everyday	-8808
▁redknapp	-8809
▁carefully	-8810
▁indonesia	-8811
▁maintained	-8812
▁generations	-8813
▁overwhelming	-8814
▁ni	-8815
brid	-8816
enda	-8817
roit	-8818
▁alf	-8819
▁kaz	-8820
arett	-8821
rough	-8822
▁corp	-8823
▁dict	-8824
▁horm	-8825
▁kard	-8826
▁reed	-8827
▁slip	-8828
▁marie	-8829
▁rises	-8830
▁ryder	-8831
▁venue	-8832
▁diving	-8833
▁fights	-8834
▁samuel	-8835
▁voting	-8836
▁adviser	-8837
▁rosberg	-8838
▁springs	-8839
▁twoyear	-8840
▁cleaning	-8841
▁deputies	-8842
▁violated	-8843
▁illegally	-8844
▁producing	-8845
▁wisconsin	-8846
▁everywhere	-8847
▁preliminary	-8848
▁negotiations	-8849
pert	-8850
ubar	-8851
▁ana	-8852
▁nsw	-8853
▁rip	-8854
asion	-8855
vised	-8856
▁bald	-8857
▁exha	-8858
▁gram	-8859
▁plum	-8860
▁aired	-8861
▁chaos	-8862
▁destr	-8863
▁forms	-8864
▁gabri	-8865
▁wider	-8866
lington	-8867
▁empire	-8868
▁endang	-8869
▁observ	-8870
▁costing	-8871
▁detroit	-8872
▁kardash	-8873
▁pirates	-8874
▁eligible	-8875
▁watchdog	-8876
▁bloomberg	-8877
▁nightclub	-8878
▁underwater	-8879
▁wheelchair	-8880
▁combination	-8881
▁preparation	-8882
▁disciplinary	-8883
ji	-8884
ths	-8885
math	-8886
omin	-8887
▁odd	-8888
▁rav	-8889
▁tsa	-8890
▁drun	-8891
▁liam	-8892
▁salv	-8893
▁cliff	-8894
▁draft	-8895
▁schum	-8896
▁descri	-8897
▁donate	-8898
▁drones	-8899
▁organs	-8900
▁raheem	-8901
▁torres	-8902
▁tshirt	-8903
▁volunt	-8904
▁answers	-8905
▁choices	-8906
▁miracle	-8907
▁exploded	-8908
▁opinions	-8909
▁extension	-8910
▁victorian	-8911
▁researcher	-8912
bia	-8913
cod	-8914
ims	-8915
iere	-8916
olis	-8917
▁psg	-8918
ested	-8919
▁aunt	-8920
▁bust	-8921
▁crop	-8922
▁maps	-8923
igious	-8924
▁casey	-8925
▁hamas	-8926
▁ivory	-8927
▁linda	-8928
▁lists	-8929
▁samar	-8930
▁singh	-8931
▁theyd	-8932
▁thief	-8933
▁tours	-8934
▁expand	-8935
▁pedest	-8936
▁stream	-8937
▁climbed	-8938
▁endured	-8939
▁motorcy	-8940
▁operate	-8941
▁shouted	-8942
▁surgeon	-8943
▁coaching	-8944
▁minority	-8945
▁peaceful	-8946
▁caribbean	-8947
▁franchise	-8948
▁sebastian	-8949
▁assessment	-8950
▁overturned	-8951
▁chemotherapy	-8952
cr	-8953
▁bh	-8954
▁eval	-8955
▁leap	-8956
▁owen	-8957
▁wash	-8958
stairs	-8959
▁blake	-8960
▁fever	-8961
▁rifle	-8962
▁spots	-8963
▁wifes	-8964
certain	-8965
▁dennis	-8966
▁dining	-8967
▁tumour	-8968
▁chester	-8969
▁gardens	-8970
▁glasses	-8971
▁employed	-8972
▁terminal	-8973
▁landscape	-8974
▁volunteer	-8975
▁unfortunate	-8976
ais	-8977
ppa	-8978
▁ot	-8979
asty	-8980
sted	-8981
▁isa	-8982
▁vib	-8983
▁icon	-8984
▁jill	-8985
arette	-8986
▁chant	-8987
▁ferry	-8988
▁pupil	-8989
▁sudan	-8990
ulating	-8991
▁blocks	-8992
▁makers	-8993
▁norman	-8994
▁patter	-8995
▁sussex	-8996
▁thames	-8997
andahalf	-8998
▁battles	-8999
▁europes	-9000
▁imposed	-9001
▁stephan	-9002
▁examined	-9003
▁offender	-9004
▁installed	-9005
▁literally	-9006
▁struggles	-9007
▁subjected	-9008
▁explaining	-9009
▁vegetables	-9010
▁mi	-9011
▁ov	-9012
amel	-9013
hend	-9014
uten	-9015
▁ate	-9016
▁dug	-9017
▁dys	-9018
▁rud	-9019
amous	-9020
liest	-9021
rastr	-9022
▁cruz	-9023
▁hass	-9024
▁kyle	-9025
▁lamb	-9026
astern	-9027
▁baghd	-9028
▁disag	-9029
▁qatar	-9030
▁guitar	-9031
▁sculpt	-9032
▁speeds	-9033
▁borders	-9034
▁emotion	-9035
▁experim	-9036
▁leagues	-9037
▁portray	-9038
reatening	-9039
▁handcuff	-9040
▁infrastr	-9041
▁nightmare	-9042
▁residence	-9043
▁announcing	-9044
▁staggering	-9045
▁contaminated	-9046
▁conversations	-9047
omy	-9048
atri	-9049
isle	-9050
ruit	-9051
▁ads	-9052
▁alz	-9053
▁desk	-9054
▁mitt	-9055
▁reds	-9056
▁ware	-9057
emonth	-9058
▁cosby	-9059
▁grief	-9060
▁palin	-9061
▁sheep	-9062
▁hunter	-9063
stitutes	-9064
▁caption	-9065
▁jenkins	-9066
▁lengthy	-9067
▁floating	-9068
▁stopping	-9069
▁stripped	-9070
▁governing	-9071
▁responding	-9072
▁infrastructure	-9073
held	-9074
▁phr	-9075
▁shy	-9076
▁sut	-9077
▁vom	-9078
iques	-9079
▁brig	-9080
▁dent	-9081
▁hash	-9082
▁coinc	-9083
▁dougl	-9084
▁mubar	-9085
▁proof	-9086
▁tools	-9087
arettes	-9088
▁anchor	-9089
▁farmer	-9090
▁lasted	-9091
▁passes	-9092
▁raping	-9093
▁drunken	-9094
▁harvard	-9095
▁theater	-9096
▁appealed	-9097
▁distinct	-9098
▁grandson	-9099
▁massacre	-9100
▁cancelled	-9101
▁engineers	-9102
▁mentioned	-9103
▁movements	-9104
▁producers	-9105
▁zimmerman	-9106
▁nationwide	-9107
▁quarterfinals	-9108
ahl	-9109
cla	-9110
pit	-9111
ials	-9112
onna	-9113
uate	-9114
uder	-9115
▁coy	-9116
▁dre	-9117
▁suz	-9118
quate	-9119
▁curt	-9120
▁jama	-9121
▁jews	-9122
luscon	-9123
usalem	-9124
▁boris	-9125
▁cyber	-9126
▁sheer	-9127
▁weird	-9128
▁proven	-9129
heastern	-9130
▁caution	-9131
▁dischar	-9132
▁feeding	-9133
▁nowhere	-9134
▁realize	-9135
▁reviews	-9136
▁arranged	-9137
▁guidance	-9138
▁refugees	-9139
▁superior	-9140
▁aftermath	-9141
▁jerusalem	-9142
▁conclusion	-9143
▁schoolgirl	-9144
▁deliberately	-9145
▁quarterfinal	-9146
rae	-9147
vet	-9148
ener	-9149
mine	-9150
▁bou	-9151
▁hugo	-9152
▁merc	-9153
▁sank	-9154
▁woke	-9155
istans	-9156
render	-9157
▁bobby	-9158
▁chart	-9159
▁lords	-9160
▁rspca	-9161
▁scrut	-9162
▁spark	-9163
▁widow	-9164
▁trauma	-9165
▁urging	-9166
▁amounts	-9167
▁beneath	-9168
▁cheaper	-9169
▁recruit	-9170
▁tactics	-9171
▁accusing	-9172
▁germanys	-9173
▁richards	-9174
▁catherine	-9175
▁classroom	-9176
▁formation	-9177
▁prevented	-9178
▁harassment	-9179
▁recognised	-9180
▁confidential	-9181
ii	-9182
aka	-9183
bey	-9184
abad	-9185
erie	-9186
iths	-9187
oval	-9188
team	-9189
▁hij	-9190
▁rib	-9191
▁tib	-9192
piece	-9193
▁berg	-9194
▁carr	-9195
▁gran	-9196
▁lenn	-9197
▁nash	-9198
▁seiz	-9199
▁shif	-9200
▁visa	-9201
rition	-9202
▁carlo	-9203
▁forth	-9204
▁jokes	-9205
▁libya	-9206
▁sheet	-9207
▁dement	-9208
▁farage	-9209
▁strain	-9210
▁bradley	-9211
▁breathe	-9212
▁ratings	-9213
▁bacteria	-9214
▁confused	-9215
▁weighing	-9216
▁berluscon	-9217
▁forgotten	-9218
▁notorious	-9219
▁signature	-9220
▁attendance	-9221
▁elementary	-9222
▁protecting	-9223
▁terrifying	-9224
ethreatening	-9225
agu	-9226
▁nu	-9227
hors	-9228
othy	-9229
uese	-9230
yard	-9231
▁hem	-9232
inity	-9233
▁alsh	-9234
istent	-9235
iverse	-9236
▁dealt	-9237
▁hotsp	-9238
umbling	-9239
▁calend	-9240
▁dorset	-9241
▁fulham	-9242
▁losses	-9243
▁mccart	-9244
▁serial	-9245
▁taiwan	-9246
▁barrier	-9247
▁carrier	-9248
▁railway	-9249
▁readers	-9250
▁stevens	-9251
▁trailer	-9252
▁vietnam	-9253
▁christie	-9254
▁islamist	-9255
▁operator	-9256
▁restrain	-9257
▁chemicals	-9258
▁violation	-9259
▁electrical	-9260
▁inspection	-9261
▁protective	-9262
asp	-9263
made	-9264
otti	-9265
ecess	-9266
oping	-9267
▁trop	-9268
timore	-9269
▁oblig	-9270
▁phase	-9271
▁straw	-9272
▁tobac	-9273
▁wells	-9274
▁assets	-9275
▁brains	-9276
▁dollar	-9277
▁patric	-9278
▁storms	-9279
▁tunnel	-9280
ographic	-9281
▁amateur	-9282
▁douglas	-9283
▁vaccine	-9284
▁explicit	-9285
▁overcome	-9286
▁superint	-9287
▁allardyce	-9288
▁naturally	-9289
▁poisoning	-9290
▁promoting	-9291
▁prompting	-9292
▁portuguese	-9293
▁resignation	-9294
dri	-9295
kel	-9296
rif	-9297
cour	-9298
ecom	-9299
oons	-9300
▁lan	-9301
▁sie	-9302
▁sov	-9303
grade	-9304
neath	-9305
▁boom	-9306
▁buzz	-9307
▁dign	-9308
▁duck	-9309
▁mend	-9310
▁vett	-9311
▁whis	-9312
stream	-9313
▁ancel	-9314
▁colin	-9315
▁fires	-9316
▁mason	-9317
▁ports	-9318
▁spare	-9319
▁unbel	-9320
▁enable	-9321
▁raises	-9322
▁affects	-9323
▁avoided	-9324
▁briefly	-9325
▁coleman	-9326
▁cruelty	-9327
▁leather	-9328
▁shooter	-9329
▁collided	-9330
▁divorced	-9331
▁freezing	-9332
▁interven	-9333
▁operated	-9334
▁removing	-9335
▁organized	-9336
▁apologized	-9337
▁consultant	-9338
▁homosexual	-9339
▁newspapers	-9340
▁pochettino	-9341
▁underneath	-9342
▁explanation	-9343
▁manufacturer	-9344
aus	-9345
mal	-9346
fish	-9347
rics	-9348
▁pam	-9349
front	-9350
oting	-9351
▁fate	-9352
▁jong	-9353
▁menu	-9354
▁thie	-9355
▁eddie	-9356
▁larry	-9357
▁lloyd	-9358
▁penny	-9359
▁sweat	-9360
▁swept	-9361
conduct	-9362
▁carpet	-9363
▁elabor	-9364
▁hudson	-9365
▁intens	-9366
▁julian	-9367
▁pocket	-9368
▁revers	-9369
▁intoxic	-9370
▁pledged	-9371
▁tobacco	-9372
▁abortion	-9373
▁canceled	-9374
▁instance	-9375
▁promising	-9376
▁surrender	-9377
▁networking	-9378
▁reasonable	-9379
▁travellers	-9380
▁billionaire	-9381
▁improvement	-9382
▁subsequently	-9383
▁grandchildren	-9384
bb	-9385
doch	-9386
fund	-9387
kson	-9388
uers	-9389
▁poy	-9390
▁bark	-9391
▁budd	-9392
▁fare	-9393
▁grav	-9394
▁hoff	-9395
▁oliv	-9396
▁pump	-9397
▁cuban	-9398
▁farms	-9399
▁harsh	-9400
▁pione	-9401
▁warri	-9402
casters	-9403
▁andrea	-9404
▁bucket	-9405
▁rogers	-9406
▁styles	-9407
▁triple	-9408
▁weighs	-9409
▁comprom	-9410
▁fleeing	-9411
▁fridays	-9412
▁wanting	-9413
▁welbeck	-9414
▁cemetery	-9415
▁dementia	-9416
▁midnight	-9417
▁universe	-9418
▁blackburn	-9419
▁furniture	-9420
▁ourselves	-9421
▁promotion	-9422
▁qualified	-9423
▁qualifier	-9424
▁radiation	-9425
▁ukrainian	-9426
▁historical	-9427
▁misconduct	-9428
▁percentage	-9429
▁schumacher	-9430
▁helicopters	-9431
▁substantial	-9432
azi	-9433
▁rou	-9434
▁sag	-9435
aying	-9436
▁benj	-9437
▁echo	-9438
▁enri	-9439
▁gown	-9440
▁pant	-9441
giving	-9442
idency	-9443
ussels	-9444
▁abbey	-9445
▁agric	-9446
▁bands	-9447
▁boxer	-9448
▁glenn	-9449
▁inher	-9450
▁keane	-9451
▁orbit	-9452
▁ranks	-9453
▁bailey	-9454
▁ladies	-9455
▁laptop	-9456
▁lesson	-9457
▁openly	-9458
▁paraly	-9459
▁ramsey	-9460
▁reserv	-9461
▁tissue	-9462
▁topped	-9463
▁baghdad	-9464
▁cycling	-9465
▁dangers	-9466
▁outfits	-9467
▁privile	-9468
▁protein	-9469
▁rehabil	-9470
▁detected	-9471
▁reducing	-9472
▁searches	-9473
▁severely	-9474
▁surgeons	-9475
▁touching	-9476
▁unbeliev	-9477
▁scientist	-9478
▁comprehens	-9479
▁confronted	-9480
▁encouraging	-9481
▁highlighted	-9482
▁ingredients	-9483
▁internation	-9484
iop	-9485
irs	-9486
watch	-9487
▁haul	-9488
▁helm	-9489
▁ahmed	-9490
▁aster	-9491
▁bened	-9492
▁cycle	-9493
▁jewel	-9494
▁optim	-9495
▁waist	-9496
▁barnes	-9497
▁berlin	-9498
▁duties	-9499
▁hugely	-9500
▁lauren	-9501
▁linger	-9502
▁athlete	-9503
▁deficit	-9504
▁mclaren	-9505
▁planets	-9506
▁rebuild	-9507
▁councill	-9508
▁famously	-9509
▁forecast	-9510
▁prisoner	-9511
▁sergeant	-9512
▁resulting	-9513
▁biological	-9514
▁friendship	-9515
▁discussions	-9516
▁prestigious	-9517
▁expectations	-9518
▁staffordshire	-9519
aut	-9520
inch	-9521
irds	-9522
qual	-9523
▁aub	-9524
▁cdc	-9525
▁hoo	-9526
▁kos	-9527
▁bosn	-9528
▁cups	-9529
▁ears	-9530
▁fert	-9531
▁lect	-9532
▁lied	-9533
▁redd	-9534
▁clint	-9535
▁diana	-9536
▁juven	-9537
▁kidney	-9538
▁lavish	-9539
▁nomine	-9540
▁propag	-9541
▁careful	-9542
▁handful	-9543
▁madrids	-9544
▁monster	-9545
▁muscles	-9546
▁nicholas	-9547
▁pointing	-9548
▁thorough	-9549
▁vanished	-9550
▁baltimore	-9551
▁converted	-9552
▁remembered	-9553
▁transplant	-9554
▁frustration	-9555
▁automatically	-9556
▁communication	-9557
▁congressional	-9558
▁demonstrators	-9559
utt	-9560
▁dw	-9561
gles	-9562
rays	-9563
rien	-9564
▁cox	-9565
▁dil	-9566
▁mck	-9567
▁carn	-9568
▁cure	-9569
▁glow	-9570
▁phel	-9571
▁thri	-9572
placed	-9573
profit	-9574
rupted	-9575
▁antis	-9576
▁backl	-9577
▁bride	-9578
▁fleet	-9579
▁peers	-9580
▁renov	-9581
▁bodily	-9582
▁bronze	-9583
▁browns	-9584
▁etihad	-9585
▁guinea	-9586
▁invent	-9587
▁joshua	-9588
▁shorts	-9589
▁shower	-9590
▁stored	-9591
▁treats	-9592
▁urgent	-9593
▁females	-9594
▁killers	-9595
▁printed	-9596
▁savings	-9597
▁stanley	-9598
▁tracked	-9599
▁boarding	-9600
▁downtown	-9601
▁spaniard	-9602
▁christine	-9603
▁extremist	-9604
▁pensioner	-9605
▁practices	-9606
▁stephanie	-9607
▁relegation	-9608
▁correspondent	-9609
▁ak	-9610
agen	-9611
what	-9612
▁mia	-9613
endum	-9614
itate	-9615
▁calf	-9616
▁coma	-9617
▁evil	-9618
▁peer	-9619
▁alass	-9620
▁decre	-9621
▁panic	-9622
▁postp	-9623
▁wrist	-9624
▁attrib	-9625
▁cosmet	-9626
▁hunger	-9627
▁hungry	-9628
▁limits	-9629
▁nevada	-9630
▁washed	-9631
▁authors	-9632
▁coaches	-9633
▁earning	-9634
▁nicolas	-9635
▁rapidly	-9636
▁unaware	-9637
▁virtual	-9638
▁charging	-9639
▁fundament	-9640
▁undercover	-9641
▁recognition	-9642
▁superintendent	-9643
una	-9644
▁fc	-9645
oral	-9646
▁dak	-9647
▁laz	-9648
▁nyp	-9649
▁sew	-9650
▁sic	-9651
▁vet	-9652
lades	-9653
umber	-9654
▁bbcs	-9655
▁beef	-9656
▁bung	-9657
▁dear	-9658
▁flet	-9659
aments	-9660
▁ditch	-9661
▁femin	-9662
▁inaug	-9663
▁pills	-9664
▁revol	-9665
▁risen	-9666
▁scout	-9667
▁solic	-9668
▁squee	-9669
▁grocer	-9670
▁indias	-9671
▁multim	-9672
▁oxygen	-9673
▁unpaid	-9674
▁herrera	-9675
▁brussels	-9676
▁deadline	-9677
▁mentally	-9678
▁stranded	-9679
▁switched	-9680
▁underway	-9681
▁banglades	-9682
▁uncertain	-9683
▁virtually	-9684
▁disability	-9685
▁disgusting	-9686
▁prosecuting	-9687
▁conservatives	-9688
say	-9689
uma	-9690
▁cs	-9691
▁gw	-9692
ante	-9693
emor	-9694
iler	-9695
otes	-9696
rist	-9697
writ	-9698
amine	-9699
iners	-9700
storm	-9701
▁kier	-9702
▁leaf	-9703
▁adapt	-9704
▁dirty	-9705
▁panda	-9706
▁preca	-9707
▁caring	-9708
▁engage	-9709
▁lethal	-9710
▁petrol	-9711
▁rapper	-9712
▁ripped	-9713
▁unions	-9714
▁abusive	-9715
▁battled	-9716
▁customs	-9717
▁deserve	-9718
▁neglect	-9719
▁thieves	-9720
▁agricult	-9721
▁alliance	-9722
▁bombings	-9723
▁calendar	-9724
▁crashing	-9725
▁heathrow	-9726
▁pensions	-9727
▁treasury	-9728
▁creatures	-9729
▁explosive	-9730
▁federation	-9731
▁programmes	-9732
▁referendum	-9733
fa	-9734
ux	-9735
eff	-9736
tag	-9737
idal	-9738
rose	-9739
▁als	-9740
▁jar	-9741
▁kel	-9742
▁unp	-9743
▁dies	-9744
▁rory	-9745
▁sadd	-9746
itches	-9747
▁alice	-9748
▁bever	-9749
▁bonus	-9750
▁candy	-9751
▁cater	-9752
▁depos	-9753
▁donor	-9754
▁polar	-9755
▁prank	-9756
▁ramos	-9757
▁schol	-9758
▁fierce	-9759
▁hitler	-9760
▁pistor	-9761
▁rating	-9762
▁spider	-9763
▁stater	-9764
▁turner	-9765
▁banning	-9766
▁gunshot	-9767
▁methods	-9768
▁monarch	-9769
▁murdoch	-9770
▁somehow	-9771
▁abdullah	-9772
▁answered	-9773
▁benjamin	-9774
▁calories	-9775
▁deterior	-9776
▁associate	-9777
▁charities	-9778
▁henderson	-9779
▁desperately	-9780
▁differences	-9781
▁applications	-9782
fs	-9783
aho	-9784
urt	-9785
inge	-9786
lock	-9787
▁bie	-9788
▁mog	-9789
▁seg	-9790
aning	-9791
▁beds	-9792
▁grid	-9793
string	-9794
▁annoy	-9795
▁eager	-9796
▁inner	-9797
▁johnn	-9798
▁rider	-9799
▁tooth	-9800
▁whale	-9801
▁behead	-9802
▁burger	-9803
▁circle	-9804
▁hallow	-9805
▁penins	-9806
▁profit	-9807
▁sample	-9808
▁smooth	-9809
▁solely	-9810
▁erupted	-9811
▁intimid	-9812
▁restore	-9813
▁sensors	-9814
▁signals	-9815
▁storage	-9816
abilities	-9817
▁horrible	-9818
▁landmark	-9819
▁thousand	-9820
▁democracy	-9821
▁diagnosis	-9822
▁modelling	-9823
▁nominated	-9824
▁releasing	-9825
▁travelers	-9826
▁casualties	-9827
▁indictment	-9828
▁astonishing	-9829
▁lifethreatening	-9830
vo	-9831
lie	-9832
roe	-9833
tan	-9834
uch	-9835
eter	-9836
iang	-9837
▁bmw	-9838
▁wis	-9839
annon	-9840
illas	-9841
inter	-9842
urred	-9843
▁barn	-9844
▁epid	-9845
▁urge	-9846
▁vert	-9847
orable	-9848
▁bulls	-9849
▁capit	-9850
western	-9851
▁butler	-9852
▁motive	-9853
▁tongue	-9854
▁towers	-9855
▁unders	-9856
▁abusing	-9857
▁airstri	-9858
▁cofound	-9859
▁laughed	-9860
▁legally	-9861
▁vessels	-9862
▁borussia	-9863
▁carriage	-9864
▁firearms	-9865
▁fiveyear	-9866
▁missiles	-9867
▁somewhat	-9868
▁attackers	-9869
▁guarantee	-9870
▁mccartney	-9871
▁provision	-9872
▁administer	-9873
▁allegation	-9874
▁subsequent	-9875
▁fiveyearold	-9876
oks	-9877
ugs	-9878
iona	-9879
▁amn	-9880
fords	-9881
▁dash	-9882
▁lump	-9883
▁okay	-9884
▁tube	-9885
inness	-9886
▁biden	-9887
▁irans	-9888
▁naval	-9889
▁radar	-9890
itement	-9891
▁goodby	-9892
▁gunmen	-9893
▁hardly	-9894
▁japans	-9895
▁powder	-9896
▁serena	-9897
▁shades	-9898
▁zimbab	-9899
▁alzheim	-9900
▁fitting	-9901
▁gardner	-9902
▁premiers	-9903
▁relating	-9904
▁staterun	-9905
▁cigarette	-9906
▁legendary	-9907
▁lightning	-9908
▁middleton	-9909
▁screening	-9910
▁classified	-9911
▁successive	-9912
▁description	-9913
▁embarrassed	-9914
▁transformed	-9915
▁transported	-9916
▁commissioned	-9917
▁intervention	-9918
▁manufacturers	-9919
ahu	-9920
ieu	-9921
roc	-9922
▁hm	-9923
▁mh	-9924
conn	-9925
rane	-9926
umin	-9927
▁bee	-9928
▁lis	-9929
▁tuc	-9930
eslig	-9931
inely	-9932
opard	-9933
▁braw	-9934
▁cave	-9935
▁cens	-9936
▁evol	-9937
▁halt	-9938
▁pals	-9939
▁solo	-9940
▁summ	-9941
icious	-9942
▁buyer	-9943
▁exter	-9944
▁glory	-9945
▁hague	-9946
▁incor	-9947
▁muham	-9948
▁rover	-9949
iveness	-9950
▁anyway	-9951
▁copies	-9952
▁emphas	-9953
▁graves	-9954
▁helmet	-9955
▁retrie	-9956
▁alerted	-9957
▁amnesty	-9958
▁chamber	-9959
▁crushed	-9960
▁lebanon	-9961
▁melissa	-9962
▁mondays	-9963
▁donation	-9964
▁guardian	-9965
▁bundeslig	-9966
▁excessive	-9967
▁paintings	-9968
▁alzheimers	-9969
▁completing	-9970
▁mysterious	-9971
▁richardson	-9972
▁complaining	-9973
▁examination	-9974
▁prescription	-9975
▁prostitution	-9976
▁administrative	-9977
bus	-9978
fan	-9979
▁om	-9980
cony	-9981
▁mak	-9982
▁pic	-9983
▁zah	-9984
armed	-9985
visor	-9986
▁acid	-9987
▁flee	-9988
▁obsc	-9989
▁paed	-9990
▁antar	-9991
▁audio	-9992
▁enemy	-9993
▁fabre	-9994
▁flies	-9995
▁males	-9996
▁paral	-9997
▁stake	-9998
▁vigil	-9999
berlain	-10000
▁fabric	-10001
▁fairly	-10002
▁retain	-10003
▁rubber	-10004
▁balcony	-10005
▁banking	-10006
▁lesbian	-10007
▁preston	-10008
▁scholes	-10009
▁sydneys	-10010
▁advocate	-10011
▁distract	-10012
▁reckless	-10013
▁relevant	-10014
▁renowned	-10015
▁basically	-10016
▁directors	-10017
▁pistorius	-10018
▁recognise	-10019
▁surviving	-10020
▁wellknown	-10021
▁passionate	-10022
▁phenomenon	-10023
▁propaganda	-10024
▁techniques	-10025
▁broadcaster	-10026
▁quarterback	-10027
▁multimillion	-10028
uz	-10029
iva	-10030
jud	-10031
lon	-10032
rin	-10033
wic	-10034
▁dv	-10035
atan	-10036
esto	-10037
feld	-10038
igen	-10039
ingu	-10040
ixon	-10041
izer	-10042
most	-10043
▁gol	-10044
▁jab	-10045
▁pas	-10046
▁wag	-10047
arest	-10048
ouses	-10049
▁chee	-10050
▁encl	-10051
▁tops	-10052
▁wals	-10053
erving	-10054
▁eagle	-10055
▁ghana	-10056
▁hilar	-10057
▁marys	-10058
▁nancy	-10059
▁wears	-10060
▁chapel	-10061
▁chased	-10062
▁mccain	-10063
▁motorb	-10064
▁neglig	-10065
▁nephew	-10066
▁salmon	-10067
▁soviet	-10068
▁andrews	-10069
▁arguing	-10070
▁bennett	-10071
▁chasing	-10072
▁explore	-10073
▁harbour	-10074
▁removal	-10075
▁thunder	-10076
▁commonly	-10077
▁deciding	-10078
▁monthold	-10079
▁relation	-10080
▁relieved	-10081
▁marriages	-10082
▁peninsula	-10083
▁robertson	-10084
▁inspectors	-10085
▁fouryearold	-10086
▁photography	-10087
▁premiership	-10088
mat	-10089
mod	-10090
▁ti	-10091
drop	-10092
ikes	-10093
▁dat	-10094
▁jas	-10095
force	-10096
lined	-10097
▁glen	-10098
▁gren	-10099
▁kurd	-10100
▁peru	-10101
▁pond	-10102
▁ruby	-10103
▁wand	-10104
broken	-10105
guards	-10106
ippers	-10107
rowing	-10108
umbled	-10109
▁barca	-10110
▁beast	-10111
▁cared	-10112
▁comic	-10113
▁pengu	-10114
▁ancest	-10115
▁bomber	-10116
▁chains	-10117
▁drives	-10118
▁spacec	-10119
▁undert	-10120
▁flooded	-10121
▁handled	-10122
▁jeffrey	-10123
▁rubbish	-10124
▁adoption	-10125
▁category	-10126
▁creature	-10127
▁deserved	-10128
▁morrison	-10129
▁patterns	-10130
▁retailer	-10131
▁thrilled	-10132
▁worrying	-10133
▁graduated	-10134
▁halloween	-10135
▁respected	-10136
▁submitted	-10137
▁threeyear	-10138
▁indication	-10139
▁infections	-10140
▁ibrahimovic	-10141
bt	-10142
oa	-10143
ye	-10144
pat	-10145
rus	-10146
tes	-10147
▁gm	-10148
omet	-10149
▁arn	-10150
▁chi	-10151
▁wip	-10152
itary	-10153
stand	-10154
▁barg	-10155
▁dock	-10156
▁estr	-10157
▁leak	-10158
▁oned	-10159
▁stap	-10160
▁trek	-10161
▁forum	-10162
▁sadly	-10163
▁twist	-10164
▁unpre	-10165
▁lovers	-10166
▁spends	-10167
▁wishes	-10168
▁anymore	-10169
▁enthusi	-10170
▁summers	-10171
▁wallace	-10172
▁assembly	-10173
▁conceded	-10174
▁displays	-10175
▁fractured	-10176
▁hamstring	-10177
▁reduction	-10178
▁bundesliga	-10179
▁comparison	-10180
leg	-10181
rov	-10182
▁bt	-10183
▁hi	-10184
ylan	-10185
▁ace	-10186
▁eug	-10187
▁faa	-10188
▁iii	-10189
▁ore	-10190
ceeds	-10191
leans	-10192
▁burg	-10193
▁lynn	-10194
▁nypd	-10195
▁pipe	-10196
▁shin	-10197
asting	-10198
uccess	-10199
▁acres	-10200
▁brady	-10201
▁chave	-10202
▁suits	-10203
▁italys	-10204
▁koreas	-10205
▁satisf	-10206
▁telesc	-10207
▁vettel	-10208
▁breasts	-10209
▁coastal	-10210
▁enrique	-10211
▁fatally	-10212
▁hosting	-10213
▁restric	-10214
▁runners	-10215
▁secrets	-10216
▁spirits	-10217
▁absolute	-10218
▁checking	-10219
▁indicate	-10220
▁lingerie	-10221
▁sherwood	-10222
▁elaborate	-10223
▁hilarious	-10224
▁insisting	-10225
▁nonprofit	-10226
▁shootings	-10227
▁spreading	-10228
▁cigarettes	-10229
▁kardashian	-10230
▁preventing	-10231
▁participate	-10232
aki	-10233
hum	-10234
▁ss	-10235
▁xi	-10236
ayed	-10237
boat	-10238
mith	-10239
onas	-10240
▁luk	-10241
▁nun	-10242
▁vit	-10243
elong	-10244
▁ozil	-10245
▁tons	-10246
▁tsun	-10247
▁yoga	-10248
▁awful	-10249
▁lobby	-10250
▁marco	-10251
▁recon	-10252
▁stere	-10253
▁allies	-10254
▁cahill	-10255
▁conven	-10256
▁dancer	-10257
▁gotten	-10258
▁labels	-10259
▁lineup	-10260
▁pastor	-10261
▁potter	-10262
▁smiths	-10263
▁stairs	-10264
▁stance	-10265
▁balloon	-10266
▁buffalo	-10267
▁bullied	-10268
▁closest	-10269
▁delight	-10270
▁fixture	-10271
▁hacking	-10272
▁neville	-10273
▁norwich	-10274
▁orleans	-10275
▁rumours	-10276
▁shepher	-10277
▁singers	-10278
▁asteroid	-10279
▁episodes	-10280
▁fabregas	-10281
▁francois	-10282
▁fulltime	-10283
▁injuring	-10284
▁commented	-10285
▁defenders	-10286
▁recession	-10287
▁spotlight	-10288
▁thursdays	-10289
▁christians	-10290
▁impression	-10291
▁legitimate	-10292
▁citizenship	-10293
▁motheroftwo	-10294
▁difficulties	-10295
▁unbelievable	-10296
fig	-10297
osa	-10298
ped	-10299
kick	-10300
onte	-10301
quer	-10302
▁meg	-10303
ensed	-10304
▁bass	-10305
▁bend	-10306
▁jake	-10307
▁shah	-10308
▁tone	-10309
▁canal	-10310
▁cheek	-10311
▁embar	-10312
▁uncon	-10313
▁crocod	-10314
▁gibson	-10315
▁loaded	-10316
▁sharks	-10317
▁staged	-10318
▁timing	-10319
▁whales	-10320
▁capitol	-10321
▁drowned	-10322
▁embrace	-10323
▁genuine	-10324
▁lampard	-10325
▁theresa	-10326
▁tremend	-10327
fordshire	-10328
▁astronom	-10329
▁fletcher	-10330
▁punished	-10331
▁rankings	-10332
▁scrutiny	-10333
▁entrepreneur	-10334
▁institutions	-10335
▁instructions	-10336
▁accommodation	-10337
pow	-10338
avit	-10339
ells	-10340
ords	-10341
▁ecu	-10342
▁kam	-10343
enson	-10344
ierra	-10345
olded	-10346
▁komp	-10347
▁mann	-10348
▁sham	-10349
▁autom	-10350
▁mccar	-10351
▁novak	-10352
▁patch	-10353
▁texts	-10354
respons	-10355
▁agenda	-10356
▁archae	-10357
▁blacks	-10358
▁casino	-10359
▁exeter	-10360
▁bidding	-10361
▁cottage	-10362
▁crowned	-10363
▁devoted	-10364
▁disrupt	-10365
▁hashtag	-10366
▁labours	-10367
▁liberty	-10368
▁pearson	-10369
▁phillip	-10370
▁revenge	-10371
▁earnings	-10372
▁promoted	-10373
▁tropical	-10374
▁cofounder	-10375
▁inquiries	-10376
▁introduce	-10377
▁recognize	-10378
▁stability	-10379
▁strangers	-10380
▁berlusconi	-10381
▁excitement	-10382
▁situations	-10383
▁violations	-10384
▁neighboring	-10385
bu	-10386
fly	-10387
idi	-10388
nut	-10389
▁dh	-10390
fers	-10391
ilia	-10392
then	-10393
▁ces	-10394
▁lid	-10395
▁poo	-10396
▁rut	-10397
▁teh	-10398
etown	-10399
heart	-10400
isive	-10401
ptons	-10402
▁chip	-10403
▁hatt	-10404
rative	-10405
▁conte	-10406
▁heels	-10407
▁idaho	-10408
▁nobel	-10409
▁quant	-10410
▁troop	-10411
▁dakota	-10412
▁inmate	-10413
▁johnny	-10414
▁modest	-10415
▁ruined	-10416
▁valued	-10417
▁laurent	-10418
▁pockets	-10419
▁costumes	-10420
▁disputed	-10421
▁formally	-10422
▁guinness	-10423
▁receives	-10424
▁regarded	-10425
▁rescuers	-10426
▁survivor	-10427
▁crackdown	-10428
▁enthusias	-10429
▁supporter	-10430
▁commentary	-10431
▁contracted	-10432
▁semifinals	-10433
▁wednesdays	-10434
▁fundraising	-10435
▁universitys	-10436
▁thanksgiving	-10437
▁neighbourhood	-10438
afi	-10439
igo	-10440
rot	-10441
▁qc	-10442
▁jor	-10443
▁jos	-10444
▁vod	-10445
▁abra	-10446
▁aids	-10447
▁chin	-10448
▁enqu	-10449
▁flex	-10450
▁jade	-10451
▁sofa	-10452
▁vint	-10453
▁wang	-10454
▁affid	-10455
▁delta	-10456
▁jerry	-10457
▁metro	-10458
▁monte	-10459
▁mouse	-10460
▁sauce	-10461
▁depend	-10462
▁funded	-10463
▁theyll	-10464
entially	-10465
▁examine	-10466
▁montana	-10467
▁resolve	-10468
▁deserves	-10469
▁emerging	-10470
▁interrog	-10471
▁judgment	-10472
▁outraged	-10473
▁strictly	-10474
▁adventure	-10475
▁alexandra	-10476
▁amendment	-10477
▁colombian	-10478
▁horrified	-10479
▁satisfied	-10480
▁shoulders	-10481
▁victories	-10482
▁consistent	-10483
▁pensioners	-10484
▁complications	-10485
▁psychological	-10486
▁demonstrations	-10487
▁recommendations	-10488
aku	-10489
def	-10490
pes	-10491
▁ka	-10492
▁oc	-10493
inda	-10494
ista	-10495
mind	-10496
▁mau	-10497
▁sot	-10498
eston	-10499
ierre	-10500
level	-10501
ollah	-10502
ophob	-10503
ublin	-10504
▁bicy	-10505
▁cute	-10506
▁epic	-10507
▁flan	-10508
▁pand	-10509
▁pund	-10510
ranean	-10511
raught	-10512
▁bronx	-10513
▁demol	-10514
▁lined	-10515
▁maine	-10516
▁manip	-10517
▁myers	-10518
▁slept	-10519
▁tibet	-10520
▁unlaw	-10521
▁absent	-10522
▁arthur	-10523
▁banner	-10524
▁burial	-10525
▁expans	-10526
▁hacked	-10527
▁provoc	-10528
▁trends	-10529
▁artific	-10530
▁careers	-10531
▁chronic	-10532
▁closure	-10533
▁cockpit	-10534
▁disresp	-10535
▁handgun	-10536
▁interim	-10537
▁reverse	-10538
▁rockets	-10539
▁abducted	-10540
▁assisted	-10541
▁breeding	-10542
▁broadway	-10543
▁compound	-10544
▁expenses	-10545
▁prepares	-10546
▁communist	-10547
▁firstteam	-10548
▁attraction	-10549
▁endangered	-10550
▁interstate	-10551
▁resolution	-10552
▁institution	-10553
▁temporarily	-10554
▁rehabilitation	-10555
awi	-10556
bin	-10557
lar	-10558
oni	-10559
umm	-10560
▁hs	-10561
etti	-10562
folk	-10563
orth	-10564
pres	-10565
teen	-10566
udes	-10567
▁heb	-10568
▁ips	-10569
▁mcg	-10570
▁ply	-10571
▁rit	-10572
acker	-10573
ucker	-10574
▁dive	-10575
▁fals	-10576
▁flaw	-10577
▁guer	-10578
▁mice	-10579
▁sony	-10580
▁till	-10581
▁ugly	-10582
ishers	-10583
▁alien	-10584
▁eaten	-10585
▁exped	-10586
▁limbs	-10587
▁paren	-10588
▁prost	-10589
▁scary	-10590
▁socks	-10591
▁tyler	-10592
through	-10593
uctions	-10594
▁bryant	-10595
▁felipe	-10596
▁oneill	-10597
▁pistol	-10598
▁pledge	-10599
▁priest	-10600
▁unrest	-10601
▁angered	-10602
▁centres	-10603
▁creates	-10604
▁fantasy	-10605
▁harmful	-10606
▁involve	-10607
▁mohamed	-10608
▁sailing	-10609
▁unhappy	-10610
▁commemor	-10611
▁equality	-10612
▁focusing	-10613
▁jacksons	-10614
▁supports	-10615
▁taxpayer	-10616
▁unnecess	-10617
▁migration	-10618
▁surgeries	-10619
▁unsuccess	-10620
▁councillor	-10621
▁distraught	-10622
▁expression	-10623
▁laboratory	-10624
▁spacecraft	-10625
▁contestants	-10626
▁contribution	-10627
▁disappointment	-10628
yt	-10629
kah	-10630
pot	-10631
ulk	-10632
▁ml	-10633
▁viv	-10634
aired	-10635
berto	-10636
books	-10637
▁blew	-10638
▁cass	-10639
▁dere	-10640
▁ebay	-10641
▁lily	-10642
▁lugg	-10643
▁riot	-10644
▁billy	-10645
▁frost	-10646
▁laden	-10647
▁lance	-10648
▁solve	-10649
looking	-10650
▁condol	-10651
▁lawson	-10652
▁parach	-10653
▁plates	-10654
▁refuse	-10655
▁shangh	-10656
▁spaces	-10657
▁travis	-10658
▁unbeat	-10659
cedented	-10660
▁anxiety	-10661
▁ceremon	-10662
▁liberia	-10663
▁nursery	-10664
▁pattern	-10665
▁shaking	-10666
▁stuffed	-10667
▁vicious	-10668
▁benedict	-10669
▁creation	-10670
▁emotions	-10671
▁humanity	-10672
▁notified	-10673
▁prescrib	-10674
▁restored	-10675
▁richmond	-10676
▁sponsors	-10677
▁sympathy	-10678
▁accidents	-10679
▁apologize	-10680
▁depending	-10681
▁evolution	-10682
▁motivated	-10683
▁sensation	-10684
▁sufficient	-10685
▁connections	-10686
▁preparations	-10687
▁unprecedented	-10688
rem	-10689
fted	-10690
▁lov	-10691
ether	-10692
▁bain	-10693
▁bats	-10694
▁blat	-10695
▁drog	-10696
▁hire	-10697
▁rank	-10698
▁tamp	-10699
apolis	-10700
cation	-10701
ecting	-10702
gender	-10703
itious	-10704
▁ewcom	-10705
▁giggs	-10706
▁joins	-10707
▁kicks	-10708
▁merch	-10709
▁nerve	-10710
▁rolls	-10711
▁shaun	-10712
▁stays	-10713
▁swear	-10714
▁trump	-10715
▁aerial	-10716
▁bishop	-10717
▁cathed	-10718
▁dublin	-10719
▁durham	-10720
▁latter	-10721
▁riders	-10722
▁submar	-10723
▁tradem	-10724
▁trucks	-10725
▁blasted	-10726
▁gesture	-10727
▁handbag	-10728
▁homeown	-10729
▁kompany	-10730
▁plummet	-10731
▁retreat	-10732
▁stormed	-10733
▁updates	-10734
▁viewing	-10735
▁intimate	-10736
▁invasion	-10737
▁matthews	-10738
▁township	-10739
▁villages	-10740
▁affidavit	-10741
▁ancelotti	-10742
▁inflation	-10743
▁innocence	-10744
▁lucrative	-10745
▁partially	-10746
▁preferred	-10747
▁publicity	-10748
▁secondary	-10749
▁workplace	-10750
▁distribution	-10751
▁consideration	-10752
cop	-10753
enh	-10754
iza	-10755
▁ig	-10756
flix	-10757
abaab	-10758
▁ding	-10759
▁pont	-10760
▁rely	-10761
▁abdul	-10762
▁brows	-10763
▁cease	-10764
▁dated	-10765
▁diane	-10766
▁hobby	-10767
▁natal	-10768
▁nepal	-10769
▁persp	-10770
ignment	-10771
▁amster	-10772
▁batter	-10773
▁consol	-10774
▁ethiop	-10775
▁exceed	-10776
▁exwife	-10777
▁heated	-10778
▁libyan	-10779
▁palmer	-10780
▁partys	-10781
▁potato	-10782
▁raided	-10783
▁resume	-10784
▁acceler	-10785
▁artwork	-10786
▁engines	-10787
▁merseys	-10788
▁ryanair	-10789
▁suffolk	-10790
▁vintage	-10791
▁accurate	-10792
▁estimate	-10793
▁stranger	-10794
▁strikers	-10795
▁whenever	-10796
▁zimbabwe	-10797
▁believing	-10798
▁courtroom	-10799
▁employers	-10800
▁exception	-10801
▁monitored	-10802
▁nicknamed	-10803
▁sixyearold	-10804
▁transgender	-10805
▁photographers	-10806
▁traditionally	-10807
lu	-10808
hyd	-10809
▁fi	-10810
amic	-10811
boys	-10812
iley	-10813
reep	-10814
▁daw	-10815
▁gav	-10816
▁kal	-10817
ovich	-10818
▁chor	-10819
▁lall	-10820
▁lips	-10821
▁pile	-10822
▁rode	-10823
▁slot	-10824
making	-10825
▁backs	-10826
▁jacob	-10827
▁meter	-10828
▁poyet	-10829
▁punct	-10830
▁rocky	-10831
▁sally	-10832
▁scoot	-10833
▁skirt	-10834
igenous	-10835
▁enquir	-10836
▁partly	-10837
▁volume	-10838
aternity	-10839
▁luggage	-10840
▁mediter	-10841
▁mubarak	-10842
▁norfolk	-10843
▁outdoor	-10844
▁outlets	-10845
▁portion	-10846
▁proving	-10847
▁assaults	-10848
▁backlash	-10849
▁driveway	-10850
▁frequent	-10851
▁musician	-10852
▁pleasure	-10853
▁versions	-10854
▁corporate	-10855
▁frenchman	-10856
▁extremists	-10857
▁proportion	-10858
▁consumption	-10859
▁cooperation	-10860
▁educational	-10861
▁professionals	-10862
gro	-10863
ouk	-10864
grad	-10865
rett	-10866
vere	-10867
▁mul	-10868
ivest	-10869
▁arra	-10870
▁cove	-10871
▁hugh	-10872
▁lawn	-10873
▁logo	-10874
▁misd	-10875
▁pays	-10876
▁pyth	-10877
▁quiz	-10878
▁tang	-10879
▁boyle	-10880
▁metre	-10881
▁shane	-10882
▁spine	-10883
▁sting	-10884
▁trace	-10885
▁allerg	-10886
▁dispos	-10887
▁earths	-10888
▁sierra	-10889
▁tables	-10890
▁titled	-10891
▁twenty	-10892
▁equally	-10893
▁greeted	-10894
▁happier	-10895
▁lallana	-10896
▁mounted	-10897
▁tshirts	-10898
▁mistaken	-10899
▁mortgage	-10900
▁patriots	-10901
▁tributes	-10902
ifications	-10903
▁cathedral	-10904
▁centuries	-10905
▁dominated	-10906
▁sanctuary	-10907
▁appreciate	-10908
▁recognized	-10909
▁restricted	-10910
▁countryside	-10911
▁destruction	-10912
▁pornography	-10913
▁palestinians	-10914
▁mediterranean	-10915
oca	-10916
uri	-10917
usc	-10918
von	-10919
▁fry	-10920
▁ios	-10921
▁leo	-10922
angel	-10923
aping	-10924
ogram	-10925
verts	-10926
▁bean	-10927
▁bold	-10928
▁cere	-10929
▁chim	-10930
▁deck	-10931
▁fond	-10932
▁mock	-10933
▁mode	-10934
▁nico	-10935
▁toss	-10936
inator	-10937
ograph	-10938
▁ashes	-10939
▁bourn	-10940
▁brawl	-10941
▁julia	-10942
▁outof	-10943
▁slide	-10944
▁twoth	-10945
keepers	-10946
▁permit	-10947
▁rented	-10948
▁stokes	-10949
▁blanket	-10950
▁lindsay	-10951
▁misdeme	-10952
▁ranging	-10953
▁recalls	-10954
▁refugee	-10955
▁skipper	-10956
▁academic	-10957
▁elements	-10958
▁indicted	-10959
▁juvenile	-10960
▁pleading	-10961
▁stepping	-10962
▁arguments	-10963
▁constable	-10964
▁glamorous	-10965
▁languages	-10966
▁pollution	-10967
▁twothirds	-10968
▁villagers	-10969
▁difficulty	-10970
▁indonesian	-10971
▁mechanical	-10972
▁approaching	-10973
▁imprisonment	-10974
▁gloucestershire	-10975
zb	-10976
lew	-10977
gart	-10978
gett	-10979
ogen	-10980
▁nou	-10981
▁nsa	-10982
marks	-10983
stick	-10984
▁ally	-10985
▁boko	-10986
▁eyew	-10987
▁kenn	-10988
▁levy	-10989
▁omar	-10990
▁scri	-10991
▁sect	-10992
▁beats	-10993
▁blanc	-10994
▁haram	-10995
▁isaac	-10996
▁janet	-10997
▁lohan	-10998
▁meets	-10999
▁navig	-11000
▁perth	-11001
▁rosie	-11002
▁scare	-11003
▁tract	-11004
▁curren	-11005
▁enjoys	-11006
▁exclud	-11007
▁greens	-11008
▁phelps	-11009
▁prayer	-11010
▁volley	-11011
▁borough	-11012
▁brandon	-11013
▁cartoon	-11014
▁consent	-11015
▁happily	-11016
▁monthly	-11017
▁selfies	-11018
▁singles	-11019
▁timothy	-11020
▁tunisia	-11021
▁walcott	-11022
▁analysed	-11023
▁bankrupt	-11024
▁bedrooms	-11025
▁belonged	-11026
▁cheating	-11027
▁compiled	-11028
▁knockout	-11029
▁premiere	-11030
▁tortured	-11031
▁attendant	-11032
▁griffiths	-11033
▁magazines	-11034
▁premature	-11035
▁warehouse	-11036
▁regardless	-11037
▁revelation	-11038
▁unemployed	-11039
▁achievement	-11040
▁condolences	-11041
▁millionaire	-11042
▁embarrassment	-11043
aid	-11044
uro	-11045
habi	-11046
iors	-11047
ouds	-11048
uces	-11049
zone	-11050
▁alv	-11051
▁clo	-11052
▁wes	-11053
itans	-11054
▁adeb	-11055
▁bren	-11056
▁chad	-11057
▁fulf	-11058
▁idol	-11059
▁isle	-11060
▁load	-11061
▁rica	-11062
▁booth	-11063
▁chick	-11064
▁horiz	-11065
▁johns	-11066
▁mccon	-11067
▁nicky	-11068
▁opted	-11069
▁sends	-11070
▁stall	-11071
▁sunsh	-11072
▁trash	-11073
▁trous	-11074
ception	-11075
tenance	-11076
▁catast	-11077
▁filing	-11078
▁obrien	-11079
▁worces	-11080
▁bullets	-11081
▁convert	-11082
▁divided	-11083
▁feather	-11084
▁goodbye	-11085
▁inspire	-11086
▁madison	-11087
▁plunged	-11088
▁reaches	-11089
▁reacted	-11090
▁tsunami	-11091
▁basement	-11092
▁cocktail	-11093
▁infamous	-11094
▁unbeaten	-11095
▁amsterdam	-11096
▁illnesses	-11097
▁nutrition	-11098
▁pakistans	-11099
▁replacing	-11100
▁smuggling	-11101
▁spiritual	-11102
▁strategic	-11103
▁conducting	-11104
▁regulation	-11105
▁influential	-11106
▁northampton	-11107
▁dramatically	-11108
▁threeyearold	-11109
▁africanamerican	-11110
omo	-11111
vol	-11112
bery	-11113
irst	-11114
pack	-11115
▁dia	-11116
▁ecc	-11117
▁raz	-11118
▁spa	-11119
▁dems	-11120
▁extr	-11121
▁loun	-11122
▁pupp	-11123
▁smok	-11124
▁stir	-11125
▁allig	-11126
▁blown	-11127
▁bunch	-11128
▁fiona	-11129
▁jumps	-11130
▁loren	-11131
▁mirac	-11132
▁tampa	-11133
▁bieber	-11134
▁comply	-11135
▁refund	-11136
▁robbed	-11137
▁tehran	-11138
▁visual	-11139
daughter	-11140
▁creator	-11141
▁gabriel	-11142
▁middles	-11143
▁netflix	-11144
▁paedoph	-11145
▁placing	-11146
▁radamel	-11147
▁shannon	-11148
▁sophist	-11149
▁worries	-11150
▁deported	-11151
▁generate	-11152
▁hometown	-11153
▁motorway	-11154
▁belonging	-11155
▁specially	-11156
▁affordable	-11157
erm	-11158
iri	-11159
rum	-11160
▁gb	-11161
▁oy	-11162
aint	-11163
amac	-11164
iola	-11165
▁ups	-11166
▁yah	-11167
▁aide	-11168
▁gaga	-11169
▁sink	-11170
health	-11171
unting	-11172
▁clues	-11173
▁deton	-11174
▁flats	-11175
▁manif	-11176
▁noone	-11177
▁restr	-11178
▁resur	-11179
▁snaps	-11180
▁spill	-11181
▁stein	-11182
▁doubts	-11183
▁indoor	-11184
▁monica	-11185
▁mosque	-11186
▁netted	-11187
▁routes	-11188
▁silent	-11189
▁alleges	-11190
▁chapter	-11191
▁kurdish	-11192
▁lieuten	-11193
▁romance	-11194
▁camerons	-11195
▁cameroon	-11196
▁choosing	-11197
▁clarkson	-11198
▁coroners	-11199
▁launches	-11200
▁matching	-11201
▁muhammad	-11202
▁saddened	-11203
▁shanghai	-11204
▁sullivan	-11205
▁colourful	-11206
▁confusion	-11207
▁equaliser	-11208
▁existence	-11209
▁uncomfort	-11210
▁presidency	-11211
▁altercation	-11212
▁fundamental	-11213
▁heartbroken	-11214
▁maintenance	-11215
lev	-11216
uru	-11217
vez	-11218
ules	-11219
urer	-11220
▁gus	-11221
▁lor	-11222
▁pus	-11223
acent	-11224
alous	-11225
amped	-11226
eling	-11227
▁bans	-11228
▁eden	-11229
▁espn	-11230
▁orph	-11231
▁rash	-11232
▁wend	-11233
abased	-11234
▁amber	-11235
▁bryan	-11236
▁gaals	-11237
▁johan	-11238
▁ricky	-11239
▁sizes	-11240
▁thorn	-11241
▁undis	-11242
ogether	-11243
selling	-11244
▁forbes	-11245
▁netany	-11246
▁onlook	-11247
▁overha	-11248
▁perpet	-11249
▁ransom	-11250
▁reagan	-11251
▁reluct	-11252
▁tinder	-11253
▁alassad	-11254
▁arrives	-11255
▁heights	-11256
▁lasting	-11257
▁scratch	-11258
▁warming	-11259
▁clintons	-11260
▁generous	-11261
▁overdose	-11262
▁punching	-11263
▁secretly	-11264
▁suburban	-11265
▁alshabaab	-11266
▁nationals	-11267
▁venezuela	-11268
▁astronauts	-11269
▁bangladesh	-11270
▁merseyside	-11271
▁differently	-11272
▁essentially	-11273
▁sevenyearold	-11274
▁confrontation	-11275
lav	-11276
aned	-11277
host	-11278
kamp	-11279
rawn	-11280
▁hoy	-11281
▁tmz	-11282
▁voy	-11283
emade	-11284
fried	-11285
grand	-11286
lects	-11287
▁aber	-11288
▁beth	-11289
▁falk	-11290
▁gast	-11291
▁knox	-11292
▁nons	-11293
▁nude	-11294
▁oral	-11295
▁remy	-11296
▁sark	-11297
▁alger	-11298
▁chill	-11299
▁fancy	-11300
▁fifty	-11301
▁griev	-11302
▁haven	-11303
▁immun	-11304
▁laser	-11305
▁mates	-11306
▁maths	-11307
▁offsh	-11308
▁rides	-11309
▁safer	-11310
▁shook	-11311
▁vogue	-11312
▁yates	-11313
▁covent	-11314
▁harper	-11315
▁lennon	-11316
▁medics	-11317
▁medium	-11318
▁poured	-11319
▁sloven	-11320
▁austria	-11321
▁croatia	-11322
▁ecuador	-11323
▁handing	-11324
▁prisons	-11325
▁thanked	-11326
▁channels	-11327
▁mccarthy	-11328
▁pursuing	-11329
▁reopened	-11330
▁companion	-11331
▁governors	-11332
▁identical	-11333
▁instantly	-11334
▁motorbike	-11335
▁solutions	-11336
▁collecting	-11337
▁delivering	-11338
▁organizers	-11339
▁supportive	-11340
▁tremendous	-11341
▁complicated	-11342
▁suggestions	-11343
▁tournaments	-11344
▁considerable	-11345
hey	-11346
occ	-11347
rec	-11348
aran	-11349
enko	-11350
essa	-11351
gian	-11352
hips	-11353
▁mcn	-11354
▁sob	-11355
▁syl	-11356
▁wig	-11357
▁wik	-11358
pered	-11359
power	-11360
▁auto	-11361
▁eyeb	-11362
▁fict	-11363
▁finn	-11364
▁mast	-11365
▁sang	-11366
▁sexy	-11367
▁yuan	-11368
embers	-11369
insons	-11370
▁annie	-11371
▁blunt	-11372
▁cairo	-11373
▁groin	-11374
▁nasri	-11375
▁pearl	-11376
▁penis	-11377
▁pippa	-11378
▁tally	-11379
▁utter	-11380
▁firmly	-11381
▁greene	-11382
▁martha	-11383
▁purple	-11384
▁savile	-11385
▁shirts	-11386
▁submit	-11387
▁wardro	-11388
▁accuses	-11389
▁crashes	-11390
▁estonia	-11391
▁hotspur	-11392
▁marines	-11393
▁deceased	-11394
▁decorated	-11395
▁designers	-11396
▁violating	-11397
▁wilkinson	-11398
▁artificial	-11399
▁discipline	-11400
▁indigenous	-11401
▁lieutenant	-11402
▁comprehensive	-11403
fed	-11404
ffe	-11405
pers	-11406
▁lac	-11407
▁mik	-11408
▁nol	-11409
▁rah	-11410
▁sab	-11411
▁shi	-11412
arded	-11413
atile	-11414
doing	-11415
▁cans	-11416
▁curb	-11417
▁dani	-11418
▁hoax	-11419
▁obst	-11420
▁penn	-11421
▁recy	-11422
▁scor	-11423
emouth	-11424
lining	-11425
usions	-11426
▁ander	-11427
▁arson	-11428
▁jacqu	-11429
▁raids	-11430
▁roots	-11431
▁sells	-11432
▁siege	-11433
▁smash	-11434
actions	-11435
station	-11436
▁coffin	-11437
▁donors	-11438
▁kazakh	-11439
▁merely	-11440
▁reddit	-11441
▁toyota	-11442
▁instant	-11443
▁madonna	-11444
▁shelves	-11445
▁testify	-11446
▁fatherof	-11447
▁hattrick	-11448
▁measured	-11449
▁reminder	-11450
▁sparking	-11451
▁sunshine	-11452
▁surround	-11453
▁trousers	-11454
▁injection	-11455
▁sexuality	-11456
▁samaritans	-11457
▁exceptional	-11458
▁revelations	-11459
▁heartbreaking	-11460
via	-11461
bank	-11462
cano	-11463
gone	-11464
hent	-11465
itic	-11466
rise	-11467
yang	-11468
▁boe	-11469
▁cau	-11470
▁pog	-11471
▁wra	-11472
backs	-11473
ifies	-11474
leton	-11475
▁adap	-11476
▁aval	-11477
▁bolt	-11478
▁brag	-11479
▁cows	-11480
▁grip	-11481
▁incl	-11482
▁mild	-11483
▁plug	-11484
▁rage	-11485
▁tire	-11486
▁couch	-11487
▁drain	-11488
▁drops	-11489
▁nasty	-11490
▁rated	-11491
▁tracy	-11492
amacare	-11493
bridges	-11494
rations	-11495
▁aiming	-11496
▁brooks	-11497
▁circus	-11498
▁destro	-11499
▁emerge	-11500
▁incomp	-11501
▁luther	-11502
▁recipe	-11503
▁stakes	-11504
▁busiest	-11505
▁constit	-11506
▁griffin	-11507
▁hammers	-11508
▁jewelry	-11509
▁knights	-11510
▁premium	-11511
▁romania	-11512
▁assessed	-11513
▁ensuring	-11514
▁hostages	-11515
▁mohammad	-11516
▁nigerian	-11517
▁portland	-11518
▁precious	-11519
▁supermod	-11520
▁copyright	-11521
▁detainees	-11522
▁displaced	-11523
▁universal	-11524
▁developers	-11525
▁structures	-11526
▁discovering	-11527
▁fascinating	-11528
▁manufacturing	-11529
▁constitutional	-11530
acc	-11531
kok	-11532
wat	-11533
▁yo	-11534
avan	-11535
feed	-11536
▁nan	-11537
echam	-11538
ilder	-11539
stage	-11540
▁dirt	-11541
▁garb	-11542
▁mids	-11543
▁rall	-11544
▁salf	-11545
▁youd	-11546
ctions	-11547
lifted	-11548
▁dhabi	-11549
▁honda	-11550
▁jesse	-11551
▁kasem	-11552
▁minds	-11553
▁pairs	-11554
▁suite	-11555
vereign	-11556
▁jockey	-11557
▁lukaku	-11558
▁orient	-11559
▁pickup	-11560
▁sacrif	-11561
▁sticks	-11562
▁warner	-11563
▁filling	-11564
▁luckily	-11565
▁passage	-11566
▁screens	-11567
▁separat	-11568
▁stating	-11569
▁archbish	-11570
▁backdrop	-11571
▁catching	-11572
▁certific	-11573
▁peterson	-11574
▁plymouth	-11575
▁proceeds	-11576
▁reconstr	-11577
▁retiring	-11578
▁commuters	-11579
▁healthier	-11580
▁operators	-11581
▁solicitor	-11582
▁sovereign	-11583
▁trademark	-11584
▁discharged	-11585
▁bournemouth	-11586
▁campaigning	-11587
▁communicate	-11588
▁firefighter	-11589
▁breakthrough	-11590
esy	-11591
▁mg	-11592
ario	-11593
aser	-11594
opes	-11595
ping	-11596
shaw	-11597
vals	-11598
▁afp	-11599
▁woz	-11600
antas	-11601
impse	-11602
obile	-11603
rolog	-11604
space	-11605
▁baff	-11606
▁chal	-11607
▁grat	-11608
▁junk	-11609
▁kash	-11610
▁luiz	-11611
▁monk	-11612
▁puzz	-11613
▁soup	-11614
ierrez	-11615
▁airpl	-11616
▁bikes	-11617
▁draws	-11618
▁dylan	-11619
▁fluid	-11620
▁haiti	-11621
▁imper	-11622
▁maker	-11623
▁melan	-11624
▁norwe	-11625
▁porto	-11626
▁sperm	-11627
▁tense	-11628
▁titan	-11629
markets	-11630
mission	-11631
▁beside	-11632
▁bitten	-11633
▁calder	-11634
▁habits	-11635
▁patent	-11636
▁shapes	-11637
▁assumed	-11638
▁bangkok	-11639
▁barkley	-11640
▁firearm	-11641
▁glimpse	-11642
▁grandpa	-11643
▁pageant	-11644
▁resting	-11645
▁animated	-11646
▁arkansas	-11647
▁parttime	-11648
▁shepherd	-11649
▁affecting	-11650
▁backwards	-11651
▁katherine	-11652
▁voluntary	-11653
▁acceptable	-11654
▁airstrikes	-11655
▁discussing	-11656
▁disrespect	-11657
▁outrageous	-11658
▁precaution	-11659
▁resistance	-11660
▁valentines	-11661
▁supermarkets	-11662
▁concentration	-11663
▁revolutionary	-11664
je	-11665
sl	-11666
edy	-11667
zai	-11668
▁ja	-11669
blow	-11670
hift	-11671
iago	-11672
idas	-11673
isms	-11674
leen	-11675
urst	-11676
will	-11677
▁dup	-11678
▁ott	-11679
▁sid	-11680
aires	-11681
antan	-11682
steps	-11683
▁knot	-11684
▁mata	-11685
▁reyn	-11686
▁swat	-11687
▁yaya	-11688
harmed	-11689
heroff	-11690
icable	-11691
▁berks	-11692
▁bible	-11693
▁brits	-11694
▁flags	-11695
▁fried	-11696
▁gangs	-11697
▁latin	-11698
▁lungs	-11699
▁lynch	-11700
▁sarko	-11701
▁troph	-11702
▁vocal	-11703
▁baines	-11704
▁betray	-11705
▁bianca	-11706
▁biting	-11707
▁danish	-11708
▁dispat	-11709
▁drogba	-11710
▁excuse	-11711
▁insect	-11712
▁interf	-11713
▁marina	-11714
▁philos	-11715
▁reprod	-11716
▁serves	-11717
▁shaken	-11718
▁shakes	-11719
friendly	-11720
▁africas	-11721
▁bargain	-11722
▁boarded	-11723
▁cousins	-11724
▁lifting	-11725
▁organic	-11726
▁venture	-11727
ibilities	-11728
▁expanded	-11729
▁missions	-11730
▁patricia	-11731
▁unharmed	-11732
▁audiences	-11733
▁fernandez	-11734
▁gutierrez	-11735
▁memorable	-11736
▁shattered	-11737
▁cambridges	-11738
▁critically	-11739
▁directions	-11740
▁girlfriends	-11741
▁unnecessary	-11742
▁improvements	-11743
▁investigator	-11744
▁presentation	-11745
▁universities	-11746
ti	-11747
afe	-11748
cos	-11749
gov	-11750
ifi	-11751
irm	-11752
kan	-11753
top	-11754
yth	-11755
▁yu	-11756
alid	-11757
icio	-11758
mons	-11759
▁mim	-11760
▁sev	-11761
iesta	-11762
▁mahm	-11763
▁rant	-11764
▁baron	-11765
▁buses	-11766
▁derek	-11767
▁jolie	-11768
▁oxlad	-11769
▁showc	-11770
▁wozni	-11771
▁zhang	-11772
general	-11773
holders	-11774
▁clouds	-11775
▁cotton	-11776
▁floods	-11777
▁gloves	-11778
▁mccull	-11779
▁mining	-11780
▁oneday	-11781
▁rental	-11782
▁rubble	-11783
▁spears	-11784
▁stimul	-11785
▁villas	-11786
vernment	-11787
▁alltime	-11788
▁hammond	-11789
▁matched	-11790
▁natalie	-11791
▁natasha	-11792
▁pursuit	-11793
▁billions	-11794
▁currency	-11795
▁dolphins	-11796
▁headline	-11797
▁mourning	-11798
▁russians	-11799
▁salaries	-11800
▁upstairs	-11801
▁acquitted	-11802
▁airlifted	-11803
▁crocodile	-11804
▁estranged	-11805
▁realistic	-11806
▁stereotyp	-11807
▁classmates	-11808
▁contestant	-11809
▁oxladecham	-11810
▁threemonth	-11811
▁congressman	-11812
▁distinctive	-11813
▁footballers	-11814
▁destinations	-11815
ym	-11816
abi	-11817
tas	-11818
▁kw	-11819
▁aqu	-11820
▁awk	-11821
▁fug	-11822
asses	-11823
▁cany	-11824
▁cara	-11825
▁irre	-11826
▁kend	-11827
▁mask	-11828
▁rack	-11829
▁sore	-11830
▁spat	-11831
▁tale	-11832
rophic	-11833
▁beyon	-11834
▁depri	-11835
▁fetch	-11836
▁files	-11837
▁foley	-11838
▁moral	-11839
▁stair	-11840
▁steak	-11841
▁wasps	-11842
▁watts	-11843
▁wilts	-11844
▁yahoo	-11845
▁chavez	-11846
▁cohost	-11847
▁dragon	-11848
▁egypts	-11849
▁errors	-11850
▁floors	-11851
▁marcos	-11852
▁monkey	-11853
▁newton	-11854
▁phrase	-11855
▁porter	-11856
▁stacey	-11857
▁voices	-11858
▁appoint	-11859
▁bruises	-11860
▁credits	-11861
▁mexicos	-11862
▁nominee	-11863
▁raymond	-11864
▁salford	-11865
▁tension	-11866
▁tougher	-11867
▁diamonds	-11868
▁download	-11869
▁formerly	-11870
▁ivanovic	-11871
▁knocking	-11872
▁magnific	-11873
▁marshall	-11874
▁occupied	-11875
▁racially	-11876
▁reviewed	-11877
▁scholars	-11878
▁treasure	-11879
▁addresses	-11880
▁developer	-11881
▁disgraced	-11882
▁efficient	-11883
▁elephants	-11884
▁norwegian	-11885
▁barcelonas	-11886
▁confession	-11887
▁publishing	-11888
▁smartphones	-11889
▁experiencing	-11890
▁requirements	-11891
▁organisations	-11892
fu	-11893
bie	-11894
ele	-11895
loe	-11896
mir	-11897
▁lg	-11898
ayor	-11899
flow	-11900
offs	-11901
▁ode	-11902
▁soy	-11903
▁spo	-11904
assed	-11905
utral	-11906
▁benz	-11907
▁carc	-11908
▁doug	-11909
▁nass	-11910
▁plag	-11911
▁rust	-11912
▁array	-11913
▁buddh	-11914
▁claud	-11915
▁donna	-11916
▁greet	-11917
▁hyper	-11918
▁istan	-11919
▁kabul	-11920
▁loans	-11921
▁manny	-11922
▁neckl	-11923
▁perce	-11924
▁scars	-11925
▁sidel	-11926
▁stark	-11927
hearted	-11928
▁adjust	-11929
▁chairs	-11930
▁copper	-11931
▁jungle	-11932
▁mathem	-11933
▁noting	-11934
▁podium	-11935
▁santos	-11936
▁sights	-11937
▁throne	-11938
▁authent	-11939
▁awkward	-11940
▁bonuses	-11941
▁boycott	-11942
▁cardiac	-11943
▁confisc	-11944
▁exhibit	-11945
▁insects	-11946
▁mandela	-11947
▁remorse	-11948
▁sailors	-11949
▁studios	-11950
▁battered	-11951
▁carlisle	-11952
▁convince	-11953
▁examiner	-11954
▁judicial	-11955
▁lighting	-11956
▁purposes	-11957
▁showdown	-11958
girlfriend	-11959
▁assisting	-11960
▁continent	-11961
▁disclosed	-11962
▁expansion	-11963
▁ownership	-11964
▁accidental	-11965
▁accommodate	-11966
▁intelligent	-11967
▁demonstrated	-11968
▁homosexuality	-11969
▁uncomfortable	-11970
aa	-11971
org	-11972
rys	-11973
bull	-11974
▁cod	-11975
▁cri	-11976
▁fet	-11977
gates	-11978
icity	-11979
▁dame	-11980
▁joel	-11981
▁mali	-11982
▁nike	-11983
▁tray	-11984
▁wart	-11985
▁xbox	-11986
▁creek	-11987
▁daley	-11988
▁datab	-11989
▁debts	-11990
▁exams	-11991
▁fabio	-11992
▁rains	-11993
▁seoul	-11994
▁steep	-11995
▁upton	-11996
▁academ	-11997
▁connor	-11998
▁costly	-11999
▁dealer	-12000
▁humble	-12001
▁impose	-12002
▁inters	-12003
▁kieran	-12004
▁lovren	-12005
▁rapist	-12006
▁sheikh	-12007
▁whites	-12008
antanamo	-12009
▁bernabe	-12010
▁bolster	-12011
▁cracked	-12012
▁defeats	-12013
▁googles	-12014
▁ireport	-12015
▁museums	-12016
▁powered	-12017
▁refuses	-12018
▁replica	-12019
▁trusted	-12020
▁advances	-12021
▁confirms	-12022
▁fouryear	-12023
▁invented	-12024
▁mauricio	-12025
▁narrowly	-12026
▁reflects	-12027
▁someones	-12028
▁supplied	-12029
▁sweeping	-12030
▁tweeting	-12031
▁appalling	-12032
▁billboard	-12033
▁fortunate	-12034
▁generated	-12035
▁makeshift	-12036
▁reflected	-12037
▁strangled	-12038
▁traumatic	-12039
▁altogether	-12040
▁archbishop	-12041
▁cheltenham	-12042
▁guantanamo	-12043
▁households	-12044
▁prostitutes	-12045
▁arrangements	-12046
▁lincolnshire	-12047
▁surprisingly	-12048
bas	-12049
bra	-12050
but	-12051
kee	-12052
yen	-12053
rons	-12054
▁fow	-12055
▁mcm	-12056
▁uss	-12057
▁wit	-12058
gsons	-12059
▁awes	-12060
▁carp	-12061
▁coin	-12062
▁fran	-12063
▁hezb	-12064
▁lith	-12065
▁myan	-12066
▁poly	-12067
▁trim	-12068
▁twot	-12069
▁vets	-12070
▁vonn	-12071
arming	-12072
author	-12073
ocated	-12074
ocaust	-12075
▁ahmad	-12076
▁botox	-12077
▁branc	-12078
▁cohen	-12079
▁genes	-12080
▁harle	-12081
▁humor	-12082
▁indef	-12083
▁kinds	-12084
▁monks	-12085
▁nanny	-12086
▁nasas	-12087
▁cannon	-12088
▁compos	-12089
▁escort	-12090
▁javier	-12091
▁joking	-12092
▁kenyan	-12093
▁serbia	-12094
▁spared	-12095
▁spinal	-12096
▁applaud	-12097
▁bravery	-12098
▁denmark	-12099
▁janeiro	-12100
▁strauss	-12101
▁transit	-12102
▁travels	-12103
boyfriend	-12104
▁appropri	-12105
▁disgrace	-12106
▁hodgsons	-12107
▁prostate	-12108
▁quarters	-12109
▁reigning	-12110
▁sticking	-12111
▁trophies	-12112
▁affection	-12113
▁berkshire	-12114
▁container	-12115
▁hezbollah	-12116
▁holocaust	-12117
▁netanyahu	-12118
▁obamacare	-12119
▁policeman	-12120
▁apartments	-12121
▁collective	-12122
▁committing	-12123
▁prohibited	-12124
▁strengthen	-12125
▁wrongdoing	-12126
▁politically	-12127
▁assassination	-12128
iy	-12129
ahs	-12130
zan	-12131
▁md	-12132
hner	-12133
iffs	-12134
isan	-12135
quez	-12136
seen	-12137
▁eru	-12138
▁nag	-12139
▁tul	-12140
orent	-12141
ulent	-12142
uming	-12143
▁acre	-12144
▁cudd	-12145
▁gand	-12146
▁loft	-12147
▁nuts	-12148
▁quir	-12149
▁skyd	-12150
▁sock	-12151
▁tide	-12152
▁vary	-12153
▁wrap	-12154
assion	-12155
brough	-12156
manuel	-12157
▁agony	-12158
▁aides	-12159
▁coral	-12160
▁downs	-12161
▁examp	-12162
▁gavin	-12163
▁gemma	-12164
▁guilt	-12165
▁jorge	-12166
▁knees	-12167
▁scand	-12168
▁screw	-12169
▁skies	-12170
▁vodka	-12171
▁harbor	-12172
▁promin	-12173
▁smoked	-12174
▁soared	-12175
▁wicket	-12176
▁bicycle	-12177
▁brazils	-12178
▁courses	-12179
▁deleted	-12180
▁horrend	-12181
▁ranking	-12182
▁texting	-12183
▁wickets	-12184
▁bernabeu	-12185
▁epidemic	-12186
▁failures	-12187
▁flagship	-12188
▁overhaul	-12189
▁prototyp	-12190
▁surfaced	-12191
▁unlawful	-12192
▁cardinals	-12193
▁counterfe	-12194
▁enclosure	-12195
▁musicians	-12196
▁negotiate	-12197
▁wiltshire	-12198
▁convincing	-12199
▁injections	-12200
▁nomination	-12201
▁spectators	-12202
▁suggestion	-12203
▁concentrate	-12204
▁extradition	-12205
▁psychiatric	-12206
▁seconddegree	-12207
aj	-12208
mac	-12209
nas	-12210
obi	-12211
▁ww	-12212
aley	-12213
ault	-12214
eled	-12215
erts	-12216
frey	-12217
uras	-12218
word	-12219
▁nam	-12220
▁spi	-12221
▁tys	-12222
▁vie	-12223
hurst	-12224
irate	-12225
owing	-12226
▁clif	-12227
▁feud	-12228
▁inex	-12229
▁kerr	-12230
▁roch	-12231
▁root	-12232
▁sach	-12233
▁soap	-12234
▁topp	-12235
thouse	-12236
▁admir	-12237
▁chron	-12238
▁chuck	-12239
▁clips	-12240
▁heres	-12241
▁picks	-12242
▁scram	-12243
▁siber	-12244
▁alumin	-12245
▁burden	-12246
▁cambod	-12247
▁dental	-12248
▁festiv	-12249
▁goalsc	-12250
▁lisbon	-12251
▁locate	-12252
▁lyrics	-12253
▁napoli	-12254
▁parish	-12255
▁snakes	-12256
▁teamed	-12257
▁amongst	-12258
▁awesome	-12259
▁beatles	-12260
▁cleaner	-12261
▁curious	-12262
▁disastr	-12263
▁doubles	-12264
▁enterpr	-12265
▁germans	-12266
▁halfway	-12267
▁insider	-12268
▁marking	-12269
▁measles	-12270
▁renewed	-12271
▁shotgun	-12272
▁technic	-12273
▁winston	-12274
▁cheshire	-12275
▁cosmetic	-12276
▁diverted	-12277
▁examples	-12278
▁labelled	-12279
▁squirrel	-12280
▁tracking	-12281
▁expanding	-12282
▁integrity	-12283
▁malaysian	-12284
▁privately	-12285
▁telescope	-12286
▁withdrawn	-12287
▁contractor	-12288
▁identifying	-12289
▁introduction	-12290
pi	-12291
aby	-12292
adi	-12293
cat	-12294
ulu	-12295
▁zl	-12296
bras	-12297
cars	-12298
eded	-12299
quet	-12300
stan	-12301
test	-12302
toos	-12303
zhou	-12304
▁ern	-12305
▁icy	-12306
▁maz	-12307
▁mcd	-12308
▁vil	-12309
hanna	-12310
party	-12311
▁bras	-12312
▁crus	-12313
▁goat	-12314
▁lone	-12315
▁mous	-12316
▁odon	-12317
▁owed	-12318
▁prey	-12319
▁vinc	-12320
abouts	-12321
listed	-12322
▁brent	-12323
▁ellis	-12324
▁famed	-12325
▁karim	-12326
▁lever	-12327
▁malik	-12328
▁obstr	-12329
▁paulo	-12330
▁poles	-12331
▁raced	-12332
▁sincl	-12333
powered	-12334
▁addict	-12335
▁barred	-12336
▁brides	-12337
▁bubble	-12338
▁decent	-12339
▁hassan	-12340
▁incent	-12341
▁intend	-12342
▁monroe	-12343
▁podols	-12344
▁predec	-12345
▁priced	-12346
▁receip	-12347
▁robben	-12348
▁savage	-12349
▁sketch	-12350
▁bridges	-12351
▁captive	-12352
▁disturb	-12353
▁diverse	-12354
▁fiancee	-12355
▁glamour	-12356
▁insight	-12357
▁municip	-12358
▁fixtures	-12359
▁homemade	-12360
▁istanbul	-12361
▁pressing	-12362
▁suitable	-12363
▁tackling	-12364
▁wardrobe	-12365
▁footsteps	-12366
▁isolation	-12367
▁lancaster	-12368
▁magnitude	-12369
▁maintains	-12370
▁philosoph	-12371
▁courthouse	-12372
▁motorcycle	-12373
▁organisers	-12374
▁prostitute	-12375
▁supplement	-12376
▁controlling	-12377
▁exboyfriend	-12378
▁exclusively	-12379
▁implemented	-12380
▁necessarily	-12381
▁contributing	-12382
▁grandparents	-12383
▁demonstration	-12384
▁sophisticated	-12385
agh	-12386
eli	-12387
acki	-12388
anim	-12389
orie	-12390
▁alq	-12391
▁hav	-12392
▁kin	-12393
▁kol	-12394
enzie	-12395
gents	-12396
ribly	-12397
speed	-12398
unted	-12399
▁eleg	-12400
▁foss	-12401
▁huff	-12402
▁inev	-12403
▁jazz	-12404
▁katy	-12405
▁kiev	-12406
▁lads	-12407
▁radi	-12408
▁reef	-12409
▁rojo	-12410
▁shir	-12411
▁slee	-12412
▁tune	-12413
▁vand	-12414
▁yang	-12415
▁yeah	-12416
▁angle	-12417
▁blows	-12418
▁chips	-12419
▁coins	-12420
▁corey	-12421
▁daisy	-12422
▁flour	-12423
▁inade	-12424
▁index	-12425
▁intel	-12426
▁leone	-12427
▁marit	-12428
▁orgas	-12429
▁polio	-12430
▁pulls	-12431
▁reply	-12432
▁salon	-12433
▁scans	-12434
▁spike	-12435
▁allege	-12436
▁cinema	-12437
▁exotic	-12438
▁heaven	-12439
▁occupy	-12440
▁preced	-12441
▁revive	-12442
▁robots	-12443
▁sandra	-12444
▁skiing	-12445
▁useful	-12446
▁wished	-12447
▁alberto	-12448
▁antisem	-12449
▁assured	-12450
▁gaining	-12451
▁georges	-12452
▁ipswich	-12453
▁leopard	-12454
▁periods	-12455
▁adorable	-12456
▁advisers	-12457
▁reynolds	-12458
▁sixmonth	-12459
▁smalling	-12460
▁troubles	-12461
▁vomiting	-12462
▁advocates	-12463
▁economist	-12464
▁guardiola	-12465
▁requiring	-12466
▁wozniacki	-12467
▁addressing	-12468
▁evacuation	-12469
▁frightened	-12470
▁instructor	-12471
▁misdemeanor	-12472
▁permanently	-12473
▁whistleblow	-12474
▁determination	-12475
mi	-12476
aci	-12477
cam	-12478
▁ht	-12479
▁ud	-12480
affe	-12481
atem	-12482
eria	-12483
lamm	-12484
uala	-12485
▁ecl	-12486
▁emm	-12487
▁fib	-12488
▁gel	-12489
▁kob	-12490
▁kut	-12491
▁pon	-12492
▁sig	-12493
uffle	-12494
white	-12495
▁hats	-12496
▁noon	-12497
▁theo	-12498
▁typh	-12499
▁ammun	-12500
▁cried	-12501
▁dehyd	-12502
▁geoff	-12503
▁hatch	-12504
▁lukas	-12505
▁moroc	-12506
▁seeds	-12507
▁sochi	-12508
▁spree	-12509
▁stead	-12510
▁tanks	-12511
▁topic	-12512
amptons	-12513
leading	-12514
running	-12515
▁bosnia	-12516
▁canyon	-12517
▁compon	-12518
▁declar	-12519
▁mutual	-12520
▁nicola	-12521
▁pamela	-12522
▁reconc	-12523
▁reject	-12524
▁relate	-12525
▁robbie	-12526
▁sooner	-12527
▁subsid	-12528
▁unborn	-12529
▁wellbe	-12530
▁abandon	-12531
▁handset	-12532
▁israels	-12533
▁jealous	-12534
▁manning	-12535
▁nearest	-12536
▁posters	-12537
▁princes	-12538
▁prolong	-12539
▁publish	-12540
▁rodwell	-12541
▁serbian	-12542
▁utility	-12543
▁writers	-12544
▁brutally	-12545
▁forwards	-12546
▁mainland	-12547
▁observed	-12548
▁packages	-12549
▁preserve	-12550
▁referees	-12551
▁resolved	-12552
▁roadside	-12553
▁wounding	-12554
▁astronaut	-12555
▁oversight	-12556
▁parenting	-12557
▁submarine	-12558
▁deliberate	-12559
▁horrendous	-12560
▁ingredient	-12561
▁insurgents	-12562
▁supervisor	-12563
▁competitors	-12564
▁populations	-12565
▁predecessor	-12566
▁awardwinning	-12567
▁motherofthree	-12568
rc	-12569
zi	-12570
bol	-12571
mos	-12572
▁cb	-12573
hers	-12574
oric	-12575
rels	-12576
▁dip	-12577
▁dow	-12578
▁gos	-12579
▁raj	-12580
nings	-12581
▁cinc	-12582
▁dwar	-12583
▁exem	-12584
▁goss	-12585
▁manc	-12586
▁panc	-12587
▁pest	-12588
▁sack	-12589
▁surg	-12590
▁vine	-12591
asters	-12592
athing	-12593
dering	-12594
icting	-12595
ugging	-12596
▁appet	-12597
▁geral	-12598
▁graph	-12599
▁grues	-12600
▁logan	-12601
▁marse	-12602
▁miche	-12603
▁postm	-12604
▁thier	-12605
▁wives	-12606
▁didier	-12607
▁diners	-12608
▁guatem	-12609
▁payout	-12610
▁sexist	-12611
▁sutton	-12612
▁abraham	-12613
▁altered	-12614
▁benefic	-12615
▁blogger	-12616
▁boasted	-12617
▁catalan	-12618
▁cincinn	-12619
▁clashed	-12620
▁dealers	-12621
▁kissing	-12622
▁oversee	-12623
▁pieters	-12624
▁compatri	-12625
▁credited	-12626
▁dialogue	-12627
▁freekick	-12628
▁generals	-12629
▁hearings	-12630
▁momentum	-12631
▁unwanted	-12632
▁ambitious	-12633
▁dominican	-12634
▁exploring	-12635
▁filmmaker	-12636
▁firsthalf	-12637
▁inspiring	-12638
▁parachute	-12639
▁ammunition	-12640
▁disastrous	-12641
▁favourites	-12642
▁reelection	-12643
▁magnificent	-12644
▁overwhelmed	-12645
▁supervision	-12646
▁exgirlfriend	-12647
▁intentionally	-12648
▁identification	-12649
cut	-12650
ige	-12651
vas	-12652
▁cn	-12653
bone	-12654
eder	-12655
ilic	-12656
▁fah	-12657
▁fog	-12658
▁nod	-12659
henko	-12660
parts	-12661
▁fisc	-12662
▁heal	-12663
▁lees	-12664
▁pean	-12665
▁poul	-12666
▁sime	-12667
▁suns	-12668
▁taco	-12669
▁turb	-12670
▁vanc	-12671
boards	-12672
inging	-12673
▁absor	-12674
▁drank	-12675
▁freak	-12676
▁lanes	-12677
▁outer	-12678
▁salad	-12679
▁scoop	-12680
▁walsh	-12681
▁amazed	-12682
▁brooke	-12683
▁ethics	-12684
▁genius	-12685
▁hilton	-12686
▁hispan	-12687
▁knives	-12688
▁robust	-12689
▁syrias	-12690
▁thirty	-12691
▁wasted	-12692
▁bearing	-12693
▁botched	-12694
▁grocery	-12695
▁heather	-12696
▁iphones	-12697
▁parsons	-12698
▁quietly	-12699
▁regrets	-12700
▁sadness	-12701
▁slashed	-12702
▁thierry	-12703
▁actively	-12704
▁coventry	-12705
▁external	-12706
▁gruesome	-12707
▁laughter	-12708
▁leonardo	-12709
▁odonnell	-12710
▁poisoned	-12711
▁regiment	-12712
▁sinclair	-12713
▁smashing	-12714
▁breakdown	-12715
▁contempor	-12716
▁gallagher	-12717
▁innovation	-12718
▁distributed	-12719
▁fortunately	-12720
▁intoxicated	-12721
▁respondents	-12722
▁developments	-12723
bec	-12724
bis	-12725
ican	-12726
rice	-12727
▁ans	-12728
after	-12729
eries	-12730
world	-12731
▁bury	-12732
▁chol	-12733
▁dens	-12734
▁gupt	-12735
▁hert	-12736
▁lens	-12737
▁niss	-12738
▁pors	-12739
▁quin	-12740
▁skys	-12741
▁stub	-12742
▁tian	-12743
▁upgr	-12744
▁bowel	-12745
▁bulld	-12746
▁duell	-12747
▁embry	-12748
▁felix	-12749
▁haird	-12750
▁hardy	-12751
▁landl	-12752
▁lunar	-12753
▁remot	-12754
▁rubio	-12755
▁spraw	-12756
▁wendy	-12757
iciency	-12758
inction	-12759
quality	-12760
▁angels	-12761
▁fuller	-12762
▁garner	-12763
▁interp	-12764
▁mccorm	-12765
▁motors	-12766
▁occurs	-12767
▁overhe	-12768
▁revell	-12769
▁threed	-12770
▁vancou	-12771
▁beliefs	-12772
▁bowling	-12773
▁honored	-12774
▁hormone	-12775
▁inaugur	-12776
▁indefin	-12777
▁jackpot	-12778
▁oakland	-12779
▁sounded	-12780
▁stylish	-12781
▁turkeys	-12782
▁visitor	-12783
▁annually	-12784
▁avoiding	-12785
▁carriers	-12786
▁consumed	-12787
▁monument	-12788
▁motorist	-12789
▁uniforms	-12790
▁allowance	-12791
▁judgement	-12792
▁onlookers	-12793
▁reactions	-12794
▁undergone	-12795
▁executions	-12796
▁explosions	-12797
▁inadequate	-12798
▁motivation	-12799
▁paedophile	-12800
▁contractors	-12801
▁whereabouts	-12802
▁northeastern	-12803
▁unsuccessful	-12804
hm	-12805
eto	-12806
iki	-12807
mid	-12808
bach	-12809
ctor	-12810
este	-12811
▁gau	-12812
▁reh	-12813
▁sci	-12814
hamed	-12815
lette	-12816
mails	-12817
print	-12818
▁bali	-12819
▁cage	-12820
▁coul	-12821
▁ecst	-12822
▁kris	-12823
▁loch	-12824
▁mash	-12825
▁mund	-12826
▁quad	-12827
▁seaf	-12828
▁semi	-12829
▁suic	-12830
▁tyco	-12831
▁unsp	-12832
arency	-12833
linson	-12834
skirts	-12835
▁alban	-12836
▁amput	-12837
▁britt	-12838
▁cyrus	-12839
▁depth	-12840
▁dimin	-12841
▁humph	-12842
▁osama	-12843
▁param	-12844
▁scots	-12845
▁starb	-12846
▁stern	-12847
▁tasks	-12848
▁tommy	-12849
▁zones	-12850
▁advise	-12851
▁bikini	-12852
▁bother	-12853
▁carney	-12854
▁dishes	-12855
▁fiscal	-12856
▁groves	-12857
▁laying	-12858
▁muller	-12859
▁nerves	-12860
▁rupert	-12861
▁vandal	-12862
▁zlatan	-12863
▁apprent	-12864
▁ashamed	-12865
▁assange	-12866
▁baffled	-12867
▁beverly	-12868
▁catwalk	-12869
▁distant	-12870
▁hackers	-12871
▁minimal	-12872
▁newtown	-12873
▁paralys	-12874
▁rihanna	-12875
▁seizure	-12876
▁suburbs	-12877
▁swimmer	-12878
▁tattoos	-12879
▁volcano	-12880
▁artistic	-12881
▁carnival	-12882
▁charlton	-12883
▁constitu	-12884
▁finances	-12885
▁invested	-12886
▁maritime	-12887
▁ordering	-12888
▁philippe	-12889
▁underage	-12890
▁dismissal	-12891
▁exchanged	-12892
▁happiness	-12893
▁outskirts	-12894
▁successor	-12895
▁attributed	-12896
▁cincinnati	-12897
▁contribute	-12898
▁prosecuted	-12899
▁perspective	-12900
▁counterparts	-12901
▁transparency	-12902
▁holidaymakers	-12903
flo	-12904
hit	-12905
pin	-12906
zos	-12907
amps	-12908
arer	-12909
aton	-12910
elin	-12911
game	-12912
iate	-12913
iffe	-12914
uffy	-12915
yers	-12916
▁dum	-12917
gaard	-12918
goers	-12919
illes	-12920
▁adri	-12921
▁amir	-12922
▁bapt	-12923
▁cout	-12924
▁crem	-12925
▁dart	-12926
▁gods	-12927
▁gove	-12928
▁gust	-12929
▁kits	-12930
▁palt	-12931
▁prol	-12932
▁wifi	-12933
ickers	-12934
ileaks	-12935
screen	-12936
▁andor	-12937
▁aspir	-12938
▁creep	-12939
▁dough	-12940
▁kenny	-12941
▁lodge	-12942
▁masks	-12943
▁molec	-12944
▁opera	-12945
▁orche	-12946
▁outsp	-12947
▁poppy	-12948
▁sunni	-12949
▁swans	-12950
▁valid	-12951
jection	-12952
ulously	-12953
verting	-12954
▁aberde	-12955
▁airbus	-12956
▁assume	-12957
▁gerald	-12958
▁gerard	-12959
▁hiring	-12960
▁lodged	-12961
▁marcel	-12962
▁marcus	-12963
▁newark	-12964
▁rovers	-12965
▁steady	-12966
▁tracey	-12967
▁youths	-12968
ickenham	-12969
▁bentley	-12970
▁ceiling	-12971
▁chapman	-12972
▁charter	-12973
▁debates	-12974
▁envelop	-12975
▁fatigue	-12976
▁gilbert	-12977
▁intends	-12978
▁mammals	-12979
▁maxwell	-12980
▁sarkozy	-12981
▁surpass	-12982
▁agreeing	-12983
▁assigned	-12984
▁captures	-12985
▁contents	-12986
▁daylight	-12987
▁elevator	-12988
▁engaging	-12989
▁equipped	-12990
▁gambling	-12991
▁injected	-12992
▁mobility	-12993
▁offshore	-12994
▁predicts	-12995
▁reminded	-12996
▁shortage	-12997
▁surveyed	-12998
▁churchill	-12999
▁emissions	-13000
▁examiners	-13001
▁mandatory	-13002
▁measuring	-13003
▁offending	-13004
▁practical	-13005
▁wikileaks	-13006
▁wrestling	-13007
▁eyewitness	-13008
▁negligence	-13009
▁persistent	-13010
▁portsmouth	-13011
▁supermodel	-13012
▁venezuelan	-13013
▁commitments	-13014
▁introducing	-13015
▁restraining	-13016
▁sustainable	-13017
▁understands	-13018
▁occasionally	-13019
▁administrator	-13020
▁participating	-13021
fty	-13022
omi	-13023
ovs	-13024
anth	-13025
atis	-13026
icke	-13027
oner	-13028
rock	-13029
tens	-13030
▁bak	-13031
▁diy	-13032
▁sao	-13033
▁tet	-13034
▁wax	-13035
faced	-13036
orter	-13037
rians	-13038
rogen	-13039
▁bids	-13040
▁flip	-13041
▁fold	-13042
▁garn	-13043
▁gyps	-13044
▁lgbt	-13045
▁narr	-13046
▁pigs	-13047
▁rena	-13048
▁slog	-13049
▁thus	-13050
▁toby	-13051
▁unst	-13052
closed	-13053
handed	-13054
iotics	-13055
rising	-13056
taking	-13057
▁acute	-13058
▁engul	-13059
▁infer	-13060
▁lease	-13061
▁molly	-13062
▁overc	-13063
▁parad	-13064
▁pedro	-13065
▁skill	-13066
▁sofia	-13067
▁tomas	-13068
▁urges	-13069
rolling	-13070
▁bashar	-13071
▁freeze	-13072
▁gunned	-13073
▁humane	-13074
▁incons	-13075
▁lounge	-13076
▁mackay	-13077
▁mening	-13078
▁micros	-13079
▁plaint	-13080
▁poised	-13081
▁prints	-13082
▁python	-13083
▁ritual	-13084
▁scouts	-13085
atically	-13086
▁abdomen	-13087
▁crowded	-13088
▁glitter	-13089
▁kickoff	-13090
▁murrays	-13091
▁pressed	-13092
▁richest	-13093
▁shuttle	-13094
▁tackled	-13095
▁toilets	-13096
▁tuition	-13097
▁walters	-13098
▁advisory	-13099
▁airspace	-13100
▁bruising	-13101
▁coloured	-13102
▁grabbing	-13103
▁homophob	-13104
▁interpre	-13105
▁necklace	-13106
▁produces	-13107
▁screamed	-13108
▁shootout	-13109
▁speakers	-13110
▁theaters	-13111
▁depressed	-13112
▁fictional	-13113
▁jihadists	-13114
▁passports	-13115
▁reviewing	-13116
▁similarly	-13117
▁standings	-13118
▁starbucks	-13119
▁superstar	-13120
▁vancouver	-13121
▁invitation	-13122
▁thankfully	-13123
▁tragically	-13124
▁wellington	-13125
▁withdrawal	-13126
▁antibiotics	-13127
▁encountered	-13128
▁consistently	-13129
▁internationals	-13130
gel	-13131
hot	-13132
urd	-13133
anna	-13134
bral	-13135
four	-13136
moon	-13137
thal	-13138
unes	-13139
usen	-13140
▁bam	-13141
▁lil	-13142
▁maf	-13143
▁uae	-13144
ienne	-13145
inhua	-13146
▁asda	-13147
▁cesc	-13148
▁dair	-13149
▁gale	-13150
▁hond	-13151
▁huss	-13152
▁ipod	-13153
▁kens	-13154
▁nets	-13155
▁saga	-13156
▁sunk	-13157
▁swap	-13158
▁unle	-13159
achers	-13160
erable	-13161
rorism	-13162
unning	-13163
usters	-13164
▁abram	-13165
▁antid	-13166
▁beans	-13167
▁brush	-13168
▁defoe	-13169
▁graff	-13170
▁hello	-13171
▁invis	-13172
▁irrit	-13173
▁leaks	-13174
▁payne	-13175
▁pilgr	-13176
▁recla	-13177
▁riots	-13178
▁rosen	-13179
▁sword	-13180
▁unpro	-13181
▁alison	-13182
▁arnold	-13183
▁attach	-13184
▁backup	-13185
▁denise	-13186
▁exists	-13187
▁geneva	-13188
▁guided	-13189
▁jumper	-13190
▁merkel	-13191
▁pepper	-13192
▁prejud	-13193
▁sequel	-13194
▁sharon	-13195
▁surely	-13196
▁sweets	-13197
▁xinhua	-13198
▁disqual	-13199
▁gadgets	-13200
▁iceland	-13201
▁locally	-13202
▁mathieu	-13203
▁praying	-13204
▁repairs	-13205
▁trooper	-13206
▁twotime	-13207
▁wengers	-13208
▁backyard	-13209
▁distingu	-13210
▁employer	-13211
▁eyebrows	-13212
▁lebanese	-13213
▁mattress	-13214
▁podolski	-13215
▁anonymity	-13216
▁ceasefire	-13217
▁intervene	-13218
▁scotlands	-13219
▁strongest	-13220
▁sufferers	-13221
▁presenters	-13222
▁controllers	-13223
▁exploration	-13224
▁forthcoming	-13225
▁sportsmails	-13226
▁broadcasting	-13227
▁catastrophic	-13228
fo	-13229
achi	-13230
aris	-13231
aven	-13232
cers	-13233
erto	-13234
pies	-13235
tles	-13236
▁cyn	-13237
▁gag	-13238
▁gum	-13239
▁kem	-13240
▁lia	-13241
▁pix	-13242
▁tee	-13243
▁vou	-13244
anges	-13245
atics	-13246
erals	-13247
inhos	-13248
oline	-13249
▁argu	-13250
▁fres	-13251
▁hein	-13252
▁lebr	-13253
▁leis	-13254
▁mane	-13255
▁mumb	-13256
▁ness	-13257
▁orth	-13258
▁rope	-13259
▁scal	-13260
▁turf	-13261
funded	-13262
itudes	-13263
ourage	-13264
umbria	-13265
▁bayer	-13266
▁clerk	-13267
▁cress	-13268
▁cripp	-13269
▁dairy	-13270
▁dixon	-13271
▁jonny	-13272
▁lakes	-13273
▁pyong	-13274
▁reyes	-13275
▁seals	-13276
▁seeks	-13277
▁silly	-13278
▁slain	-13279
▁steen	-13280
▁unear	-13281
▁urine	-13282
abulary	-13283
▁arctic	-13284
▁bachel	-13285
▁caller	-13286
▁cattle	-13287
▁cheeky	-13288
▁deeper	-13289
▁eldest	-13290
▁floren	-13291
▁kitten	-13292
▁libert	-13293
▁mature	-13294
▁nebras	-13295
▁norton	-13296
▁poorly	-13297
▁presum	-13298
▁scorer	-13299
▁tricks	-13300
▁unsure	-13301
▁aspects	-13302
▁condemn	-13303
▁healing	-13304
▁hopkins	-13305
▁myanmar	-13306
▁neutral	-13307
▁rampage	-13308
▁reuters	-13309
▁shallow	-13310
▁windsor	-13311
▁yelling	-13312
▁advertis	-13313
▁alarming	-13314
▁colleges	-13315
▁courtesy	-13316
▁database	-13317
▁decisive	-13318
▁implants	-13319
▁murderer	-13320
▁persuade	-13321
▁profound	-13322
▁romanian	-13323
▁sciences	-13324
▁senators	-13325
▁settings	-13326
▁stephens	-13327
▁takeaway	-13328
▁dependent	-13329
▁milestone	-13330
▁observers	-13331
▁approaches	-13332
▁attracting	-13333
▁enthusiast	-13334
▁greatgrand	-13335
▁imprisoned	-13336
▁industries	-13337
▁certificate	-13338
▁confiscated	-13339
▁coordinator	-13340
▁interactive	-13341
▁experimental	-13342
▁implications	-13343
▁qualification	-13344
ppo	-13345
uer	-13346
azed	-13347
boro	-13348
enos	-13349
▁caf	-13350
▁hin	-13351
▁jak	-13352
▁sas	-13353
▁wiz	-13354
▁zur	-13355
ascus	-13356
ellar	-13357
etary	-13358
racts	-13359
▁adul	-13360
▁ajax	-13361
▁dual	-13362
▁henn	-13363
▁itll	-13364
▁marr	-13365
▁myth	-13366
▁outs	-13367
▁pine	-13368
▁sene	-13369
▁ther	-13370
▁zoos	-13371
ptions	-13372
▁corre	-13373
▁crabs	-13374
▁disgu	-13375
▁gains	-13376
▁gorge	-13377
▁grabs	-13378
▁layer	-13379
▁luxur	-13380
▁palsy	-13381
▁sunny	-13382
▁troll	-13383
▁tyson	-13384
▁witch	-13385
▁autism	-13386
▁batman	-13387
▁capped	-13388
▁cartel	-13389
▁crouch	-13390
▁immune	-13391
▁minors	-13392
▁piracy	-13393
▁redund	-13394
▁splash	-13395
▁stefan	-13396
▁unanim	-13397
▁blaming	-13398
▁boehner	-13399
▁defined	-13400
▁enhance	-13401
▁expense	-13402
▁fiction	-13403
▁finland	-13404
▁forests	-13405
▁habitat	-13406
▁inflamm	-13407
▁linking	-13408
▁plagued	-13409
▁pouring	-13410
▁sandwic	-13411
▁talents	-13412
▁typhoon	-13413
▁whoever	-13414
▁damascus	-13415
▁eurozone	-13416
▁franklin	-13417
▁giffords	-13418
▁grieving	-13419
▁lifelong	-13420
▁magnetic	-13421
▁makeover	-13422
▁mistress	-13423
▁fisherman	-13424
▁highspeed	-13425
▁invention	-13426
▁manifesto	-13427
▁primarily	-13428
▁privilege	-13429
▁providers	-13430
▁pyongyang	-13431
▁sickening	-13432
▁socialist	-13433
▁touchdown	-13434
▁categories	-13435
▁counterter	-13436
▁distracted	-13437
▁encourages	-13438
▁expedition	-13439
▁mainstream	-13440
▁membership	-13441
▁processing	-13442
▁succession	-13443
▁counterpart	-13444
▁londonbased	-13445
▁administered	-13446
▁confirmation	-13447
▁middlesbrough	-13448
rh	-13449
aza	-13450
imm	-13451
tor	-13452
uba	-13453
vor	-13454
amon	-13455
elve	-13456
emia	-13457
isha	-13458
redo	-13459
robi	-13460
sein	-13461
▁fij	-13462
▁ivf	-13463
▁kle	-13464
▁une	-13465
▁wow	-13466
otion	-13467
▁aver	-13468
▁bins	-13469
▁boge	-13470
▁clut	-13471
▁cort	-13472
▁dunn	-13473
▁eyel	-13474
▁heck	-13475
▁joey	-13476
▁rudd	-13477
▁tomb	-13478
ancies	-13479
flight	-13480
houses	-13481
mented	-13482
tohead	-13483
▁dolls	-13484
▁fails	-13485
▁genet	-13486
▁nolan	-13487
▁pains	-13488
▁stray	-13489
▁wired	-13490
▁agrees	-13491
▁blasts	-13492
▁borrow	-13493
▁collar	-13494
▁eagles	-13495
▁froome	-13496
▁halted	-13497
▁koeman	-13498
▁landsl	-13499
▁lankan	-13500
▁lauder	-13501
▁margin	-13502
▁mccall	-13503
▁milton	-13504
▁qantas	-13505
▁quirky	-13506
▁ranger	-13507
▁venice	-13508
▁capello	-13509
▁decides	-13510
▁declare	-13511
▁garbage	-13512
▁heating	-13513
▁lending	-13514
▁lighter	-13515
▁manhunt	-13516
▁offense	-13517
▁recipes	-13518
▁valerie	-13519
▁wrongly	-13520
▁applying	-13521
▁cerebral	-13522
▁contrary	-13523
▁disclose	-13524
▁dominant	-13525
▁lipstick	-13526
▁montreal	-13527
▁neurolog	-13528
▁offenses	-13529
▁pipeline	-13530
▁threaten	-13531
▁trainers	-13532
▁unhealth	-13533
▁admission	-13534
▁islamabad	-13535
▁morrisons	-13536
▁outspoken	-13537
▁postponed	-13538
▁processed	-13539
▁prosecute	-13540
▁prototype	-13541
▁sacrifice	-13542
▁unrelated	-13543
▁wellbeing	-13544
▁advertised	-13545
▁calculated	-13546
▁contention	-13547
▁destroying	-13548
▁encounters	-13549
▁lifesaving	-13550
▁possessing	-13551
▁reflection	-13552
▁responders	-13553
▁substances	-13554
▁declaration	-13555
▁electronics	-13556
▁restoration	-13557
avi	-13558
lia	-13559
aver	-13560
eaux	-13561
fair	-13562
irlo	-13563
iven	-13564
norm	-13565
▁bri	-13566
▁jog	-13567
▁pav	-13568
dings	-13569
enter	-13570
erity	-13571
iston	-13572
psons	-13573
range	-13574
thorn	-13575
▁boyd	-13576
▁earl	-13577
▁flam	-13578
▁glor	-13579
▁hait	-13580
▁hers	-13581
▁leah	-13582
▁ling	-13583
▁mish	-13584
▁mold	-13585
▁prog	-13586
▁raft	-13587
▁wigg	-13588
▁zach	-13589
atable	-13590
utical	-13591
▁ayear	-13592
▁belly	-13593
▁bente	-13594
▁congo	-13595
▁dared	-13596
▁earns	-13597
▁farah	-13598
▁golds	-13599
▁kills	-13600
▁mercy	-13601
▁pitts	-13602
▁quake	-13603
▁retro	-13604
▁sworn	-13605
claimed	-13606
lifting	-13607
▁abnorm	-13608
▁ageing	-13609
▁bounce	-13610
▁charts	-13611
▁colony	-13612
▁devils	-13613
▁finale	-13614
▁flower	-13615
▁intake	-13616
▁judged	-13617
▁mascot	-13618
▁patron	-13619
▁regist	-13620
▁rumors	-13621
▁tricky	-13622
▁uganda	-13623
▁yelled	-13624
ensitive	-13625
▁augusta	-13626
▁benzema	-13627
▁clinics	-13628
▁congest	-13629
▁contrad	-13630
▁deposit	-13631
▁falsely	-13632
▁jasmine	-13633
▁porsche	-13634
▁surfing	-13635
▁swallow	-13636
▁terrier	-13637
gregation	-13638
▁arguably	-13639
▁endanger	-13640
▁escorted	-13641
▁frontman	-13642
▁graffiti	-13643
▁honestly	-13644
▁nebraska	-13645
▁revenues	-13646
▁shipping	-13647
▁yearsold	-13648
▁abduction	-13649
▁biography	-13650
▁exercises	-13651
▁inflicted	-13652
▁permitted	-13653
▁bankruptcy	-13654
▁definition	-13655
▁guaranteed	-13656
▁headtohead	-13657
▁instructed	-13658
▁kazakhstan	-13659
▁pedestrian	-13660
▁anticipated	-13661
▁collections	-13662
▁maintaining	-13663
▁achievements	-13664
uy	-13665
eer	-13666
eur	-13667
isp	-13668
oub	-13669
anas	-13670
azer	-13671
ocum	-13672
plan	-13673
▁hos	-13674
▁lex	-13675
▁nai	-13676
▁sor	-13677
▁tug	-13678
[...]
